10
conv1.weight 150 be40ee1b bd20bab8 bdc4bc53 bd5a7eac be34eb87 3da45e42 be379573 bc50cd80 3d8e61ca bd8a10fc 3de869e2 3ccea540 3de12852 3e036697 bdb4d110 3d94db92 bdb136a7 3d8064c2 bdd602e0 3dbd77e2 3d25d7d8 bda04b4d bdc8e833 3d53f24c 3e3f153b 3dc49102 bc9e35f0 bc1f0ce0 3de8cfe2 be0e566a 3d882bca bd87b8fa 3decfc9a bd921cdc 3c2207a0 3d8a5076 3e0cbe9d bcf0d150 3e3ad65d be2d452f bd1220a0 be4c38bb 3c87b998 3d687904 bda5cf10 3daa1dce bd04ccb8 be31f7fd 3e1d3b51 3dfc8b5a 3dcf18d2 3e235c79 3d969e3e 3dd9c7be 3e29f329 bd250df8 be1fb983 bdc9702a bcdab610 bcb409d0 bab1ab00 3deabaf2 3d836562 be176d6d bd761794 bd40b76c 3df949c2 bd949826 bdab5ecd bd03b618 bd506178 bd49b348 be48627f 3e367965 3dd9ffaa bdc1d137 bdff9017 3be3ff40 3de9611e be12f913 bd9ab2a3 3dab5366 be041958 bcb66f98 be1a7073 3e3df4ad 3ddcca7a be3d4d40 bde22553 3d913226 3c3395d0 3d59187c be278ae8 bddb50fd 3db9d9d2 be1c2912 bd2bd540 3db41fa2 3dd496de 3c4bbe20 3d6d7a8c 3db634e2 bcbf67d0 bd5fd4b8 3e1c65a1 3e47a4b1 3dbdba32 bdb30ced be3224e0 be4a2410 3ab55900 bd9d27d0 bd4e258c bce665e8 3e41ae93 3e422007 bc992f18 bd75fd6c 3dc6eab6 bc82bd40 be42de88 3d85842e 3e4410f1 be2256e3 bd30ecf8 3d31a7f4 be26c542 be2f577a 3e18e3db bd91099a 3deeee52 3c927818 3d47dfd4 be087dd6 bd2ef594 3e0718b7 3dbbde52 bd6cd9f8 3cc98dd8 3e1ccc71 be3371fa 3e038d8b bd7633d4 bd26a794 3dc2e986 be2a23ad bcf78330 3e43b621 3d936b0e bd977516
conv1.bias 6 bd327058 3e2182a9 3d9ac002 3e0ad417 be03e195 3d6c2d8c
conv2.weight 2400 3c6f2220 3c693090 3d9b4564 3d392280 3d668744 3d12d914 3d0c8f02 bc68b0d0 bd93959c bd8d4125 bd504bc2 bd588768 3d1d7026 3ccf0f60 bcbeb908 bd7ec2b0 3da49ee8 3d7b5044 3d1f0d5c 3da584ca bd320e91 bd3e7486 bd43c295 bb818830 bd939c39 3d84608a 3b09a700 3d268c4c bd37a9c3 bc09d138 3c2ff340 bcb7130c 3d9dd66a bd18cbb3 3ccfaed4 bd62eb1c bc1e5718 bcb173b6 3d104ba2 3d699e54 3ca2acdc bbf2ec00 bcab471c 3d831aac bc9e0c1a 3d716f88 bd14cd46 3d89d0e8 3da68c8e 3d65408c 3d3fd090 3cf8f4b0 bd24711b 3a7f7380 3ce65088 bcaec6b6 3c6fd098 3d43df30 bd9aeef5 bd9833e2 bd481d6b 3c232f98 bc77f650 3c902314 bc9f0f28 bd5aef66 3c319cd8 3d628284 bd48cedd 3d929468 3ca49e68 3da4e20a bd994540 bda0103b 3ce2ecc8 bd9bff1f bd8908f3 3d2a0e44 3d225882 bd985f7c 3d70a758 bc820f64 3d784ae4 bd44435d bd9f00c5 bd5db412 bc4f6360 bda70156 bbb64b00 bd26e979 bc9bae88 b742e000 3b962960 bda391f6 3d2c06c6 bd4cf9ba 3d4bd08c 3d9939e6 bcdf1048 3c162410 3d3866f0 bbd3f870 bd8bea87 3d163b20 3d1f1b2c bd37397f bd612e70 bc697528 3c83247c bd292224 bb009fe0 bd10853d bd024a7a bc3713e0 bcfeefc2 3d8072b2 3cafc110 3d95a642 3d96fbbe 3c5aa4f0 bd0b2266 3d4b5ecc bb3a3760 3d7793f0 bc8ed2d8 3d93dfda 3c30b4f8 bc949c5c bd5a2ee1 3d778280 3c2e0178 3ce75f24 3d072eaa bb8a2ad0 bd282265 bcc7a2ea bb6e3720 3d4fab80 bbc38cd0 bca991d6 bc35ce50 3c5ba080 3d85771c 3d7c6160 bb9c7c00 3c315320 3d97a66a 3d12ee34 bc0d27d0 3d464204 3d1854d6 bcb3a2fc 3d074a68 3bd41030 bcf854b2 bbd1d780 3d9d6316 3cc8eb24 bd8a0e80 3d5520e0 3c8fb7b4 3d248412 39b3e100 3d0502f4 3cc7ef60 3d92d20a 3d307f00 bd125b7d 3d2f42d8 bb9eafc0 3d5d2198 bceab2c2 bcc451b2 3d9aa25a 3c6bb5a8 3c3b8f30 3c092f50 3bae67c0 3b612940 bd914ef4 3da169a0 3d9fa450 bd663bf6 3ca56564 3d8a3914 3c8185f4 3d0fdaf8 3d7915bc 3d0df654 bc71cde0 bd8b01fb bd1db866 bd471c33 3ad87bc0 bd6ccd4a 3d545d6c 3c83c040 bd10db25 bd41cba9 3cdb1b60 bca01d6a 3c7f9590 3bfb5ff0 3c266620 bc3920d8 bc8312fc bc9cd704 3d00f58a bd579c56 3afacdc0 bd07e57b bd9ee98a 3cbc37f8 3cce1960 3d94cca8 3d5bbd70 3da3aaa0 bd83672c bd918de2 3cd00980 3d23e6f4 3d13568a bd5c3ace 3d82dc5c bd915966 3cb23ca4 bd000c3d bcf0b668 3d84234e 3d90a21c 3d01db6c 3d15e304 3b50f500 bd4d0b48 3cae66ac 3d8fd070 3d0c2222 bd95fd6f bc8cd0ac 3cd55d8c bc76b5a8 bcd00ffe bd929b76 3c08f7e0 3cb32d2c bd97fb4c 3c7f6388 3cc946e4 3cf99614 3d59dc10 bd459e12 3cd9e638 3bf75d00 bcc2403c bba30050 3da4ff16 3b2c6cc0 bcb48ffe 3a9cfd40 bd217091 bd421079 bc96c99c 3d2d376a bbcf2500 bc9ca140 3d0aeae0 3d398854 bc76d560 bca8e58a 3c624018 bd35d74a 3d76739c bcba9eda bce12546 3d98ed78 bd8173b7 bcb3f460 3d9750ce bd1b6049 bc8be13c 3da05944 bcdd5d76 3d1a660c 3d0f81c4 3c810d1c bd8dc0f4 bd58970d bd85821e bda4cadd bcba8970 3c1cfb80 bd926ebd bd977001 3b8670e0 bcf8b7f6 3c76dc10 3c8ab9f8 3da6605c bb41a980 bd87563d bd5cea72 bd9a0f36 bc754330 3c1942e0 3cdcc08c 3c7f4988 3c999398 3c390228 bbed4c70 bd1608ee 3c9dbcbc 3c301fd0 bcbbffb2 3d73b7e4 bda2be0c 3cc493f4 bd3ccb53 3d310228 3d82c6ee 3d6cef84 3d003d08 bd1fb2c5 bc9375ec bcbba530 3c21da18 bd2256b0 3d229aee 3d42c754 bd076687 bcc0af66 bd6af690 bd39bc58 bd249d35 3d68eef0 bd8ee7c1 3cc840f0 3d95f1e4 bd5e3679 bd936e7f 3d353b40 3d4ccf44 3d0bf262 3d83c4a8 3d536be0 bc4fd270 3d778648 bd282e5b 3d0f1754 bd49b6cf 3c961364 3d349d90 3cfa3710 3d361f00 bc4a0c08 3ce592d4 3c2ae130 3d8b3036 3d429148 bd729a97 3d0335f2 3d31f640 3cb85028 bd290c38 3da2c3aa bd6a3754 bd8801fa 3cd8d918 3d0d43dc 3bcaf6b0 3b4a2c20 3d0c2384 3d6cc0e0 bd21b6b2 3cd1c5b4 bcf6709c bd2cf82f bd2dab09 bd78e980 3d8d142a bce288bc bcbbfd16 bb017080 bd59db6c 3d58bb0c bcd05dd4 3d31aae8 3cc24dcc bda5fe1f bd99bf9a bda2fb7a 3d960f96 3d988604 3ce4c1a0 bd0afe4d 3cdbfcc4 bd7cafea 3c591d58 bc36ce50 3d652360 3ba80630 b9cc7100 bbecf950 3da083a8 bd69e2ad 3d17ac52 bd9675a4 3c75af40 bd8c289b 3d227a90 3d95a186 bd206fae 3d95fb42 bd95bb9a 3d1f993a 3c63a7d0 bc992330 bc38c000 3d05a74a bc73c050 bda1be67 bcf19e50 3d8dd8ae bd8ffeba bce17a5e 3d0a05f8 3d748628 bd7b78f4 bd676d2e 3d49c1e0 3d637b98 3d598a6c 3d3ffb04 bd8e93bc 3cdc82d8 bb41cde0 3c4d6798 bcffb3ec 3da1ca62 bb90fc70 bd64e43f 3d2d46dc bae090c0 bd507ca6 bd13cd86 bd52e803 3c83804c 3c8f8644 bcb92a24 3bdb7aa0 bd358d4b bda5e0a7 bb00fba0 3d9e8382 bd79201c 3c84ade8 bd28129b bc5266f8 3c9c3240 bd24d69e bd8f635b baa61d80 bbc75070 3d721158 3d057596 3d403b3c bd521d06 bd9caf93 bd4a1c66 bd865ea6 bb3a84c0 bcc6a4ac bbf5a990 bcbcd1ee bc5cf540 3c949d50 3da3df9a bc8a218c 3d894318 3d9632fc 3d200890 bcb0a3ee 3cb1c504 bd5b3ff5 bbe3fc60 bd1c66a8 bd800c54 bd8d9be6 bcf1653e 3ca6e0ec bae1afc0 3b385f80 3d0c60d8 3cbf2a80 3d60d1dc bca041c6 3c996d18 ba54e500 bce5983a bd608093 bcb965ce bd9e41b3 3c1e9928 bd84e6a5 bce89af0 bd02acc4 3d8f520e bd884dba bc9fba66 3cef7fcc 3cbd1904 3d8937d0 3ca252e0 3d449900 bd48c1f1 3d4f9b30 3ae83f40 bc149770 bd1615a8 3cf7dd18 3d2d21a4 bd74d66a bd814eb2 3d056cc2 bd93fa97 bd9d4be1 3d71f178 3cd4e220 3bcdd820 b9f74000 3d0af146 bd6ee114 3d8b09b4 bc3a5e38 3c034538 bd9e4c34 3ba2edc0 bd4c575e 3d3c2f1c bd9ed82b 3d96b840 bc9ccfa0 bce42af6 ba099380 bd88afa0 3cd7b8cc 3d8864fe bd0c7d71 bcd93466 bd8b56fb 3ca2f328 3d765670 3d882166 3cd6a8b8 3d160380 bd75775b bd067ba9 3da32cdc 3a9de800 3d080fe6 bd77c9eb bd89ff44 3d840304 bd147715 bd34aefe bb6818c0 bbc24510 3d121c6c 3d50b178 3d9460f2 bcc60694 bcad6f3a bd8318b6 bd29d8f5 bc7a0d20 bd2b3739 3b037460 bc8f7f20 3d404c58 bd920e0e bad81a80 bcfcef6e 3bb44200 bd34a47b bda4ae4c baf9c680 3bef6240 3d912db6 bd63c590 bc475d48 3d876940 3da10e1e 3c4c1dc0 bd231c06 3d454258 bd722ff8 bd8c254f 3be59720 bd4348f2 3cd58b24 bd10d73c bd71b6c2 bcf4647c bd59f082 bd6b77ff 3d2ffbd6 bc063588 bd0f64c0 bda3f1a7 3d800964 bd45dd5c 3d882e24 bd8dfc0c bd1a2223 3da0a88a 3d0c38f0 bd56810d bd5b5271 bd289800 3cff7f18 3d2e67e4 bcf84c48 bd8c4fc5 bd5f7307 3d50985c 3c6987d8 3d08bf58 3d2c27a8 bd576cfd bd7c047e bd6e67be 3da469b6 3b1ebc40 3b987b20 bda32f7c 3c5c3f30 bd9b87b2 bd5b1760 3bab4230 bd952151 3d1590f8 3d6d5a70 bd0c41ee 3d730a48 3d823732 bd9a5d50 3b882ea0 bcb15c26 bc4f7428 3d3c10ec bd2b9162 bd5df678 3c194bd0 3c8bcc78 bd3420e4 bd123b0b bd9675e1 3d3d6ddc bd2a9d33 3d216274 bd8a6eab bd5f8776 bb2fdec0 3da637d4 bc2dc7a0 bc006258 bc9313cc 3c40cc88 bcce6f36 3d814eb8 3c087788 3d2c1bd2 3b30e660 3d7b077c bd5351e4 bd2acf21 bd043a78 bd0ad00c 3bbee270 3d1ac7d4 bd7653f1 bd6b5446 3d4a9218 3d198628 3c8cc254 3d0d8fb8 3c1c6b10 bce4f2cc bc568508 bcaf7576 bd0d2ef5 bd4b8750 bc495468 bd57affe bd415d04 bd5159fe 3d9b35b4 3da50368 3d3785b4 bc881f38 3cafbeb4 3d0a563c 3c50df40 3d2cf708 3cfc2a5c 3cd81814 3d9f062c bd8ad3d8 3c002fb8 3d85dd9c 3d88cb48 bcbd241c 3d5f1200 bd473f64 bba85100 3d97607e bc638c78 3d2df7c2 3da6e3ae bd0e9d69 3d0e96aa bd037297 bcb824a8 3d77f340 3cd3dbe0 bd915fca 3d9cbb3a 3d6c7b4c 3d39a77c 3c17c1b0 3d19e76c bcd11956 bce970bc 3d301820 3c50f560 3da03aba 3ac01380 bb989450 3d423d28 bd22bee5 bd948d32 3b336240 3da48596 bd7f892b 3c5203d0 bd5adc72 bd8faebc ba1dd080 bcedfe88 bc9f8724 3cdc731c bc9cd58c 3c15eb10 baff5440 3d7ed6b0 3ce6e160 bcf25094 bd7b8fa6 3d5df07c bc0e5598 3d068164 bd10ae3f 3d6cff54 3d62acd4 3b7ec520 3cad81b4 3c866500 3cfd7a80 bc272aa8 bd90137c bd6a3322 3c4f3f00 bda68d09 bd9f7f0c bd3846eb 3d2d04b8 bbc81a20 bd6d9a62 bd5f41de bd01fb01 bd767224 3d9c0874 bd5652f6 bd31450b bd6b1819 bcf204ee 3d84f378 3cf4e420 3bc74a40 bda4fd7b 3d072df4 3d9c79c8 baab1f40 3d6365ec bcd7cdf4 bd9ccc63 bb05ac60 3d0551d0 bd12eb82 3b9b0b50 3c5fb198 3da07f10 bd2e778f bd9147d6 bd1bbff8 3d7103a8 bd1b3ce9 bbaf8c10 bd707ac6 bd2c2d4e bd8f8182 3cc8189c 3d61b708 bc321f20 bbc1f010 3cab7c88 bc44ef98 3be0be70 3d0963ee 3d80b310 3d2ab8a6 3ca3b7f8 3d8f43b8 bd950fb2 bd5c3380 3d87f02c 3d9b76fe bd1be626 3d834af8 bc1978a0 bcbae53c bb4e9580 bcade2f8 3cb82fbc 3bcb0720 b9d60200 bd0c9c43 3d4b2460 bd4f3ea0 ba92f100 3d5c423c bd3248ae bd5f4a94 3cb1d1bc bd8a4839 bd0b7600 3d91ee76 3d40d574 3d9738a6 bd9fdf66 bd9d4330 3ca68310 3cecf494 bd41d42f 3cf0cbbc 3c672230 bd0e3595 3d9c1eca 3d806d14 3d8a858c bcda20dc 39fe1f00 bd1f404c 3d88da6c 3d97e7ae bd25da72 3cc265e4 3d8e0bc4 3c2a2c60 bce1218a bc4c9060 bd5b633b 3da3c1ba bd27a41a 3c924588 bd926223 3c00e2e0 3d6c13a4 bd8979d7 3ced5fe8 3adccd80 3d350d14 bd1d4e85 bd482839 bd159060 bc427f50 3d8cdc3c bba45a60 bd756a6c bd3e132d bc9e16f0 bcc40720 bbe872f0 bd06a462 bd1f79b3 3cbac61c 3cc8265c bd0c7024 3cfc9388 bd046a54 3b7a2820 bc89e554 3b077300 3d886dea bd0745e8 3d97054a bb745940 bd634e56 3cea7b90 3c168d28 3da40d5c 3d80118c bd9b5aa3 3d8fc0d6 3d994d50 3d2e4db2 bb8880c0 3da21656 3bac9560 3b9c60f0 bb7a7700 3d342170 bbe7ec20 3c028430 bd027be0 3c2a09f8 3d2bb306 3d3204e0 3d9cd020 3bf075d0 bd9afc90 bd4bd0cf bd20bf00 bbd18860 bd8b625c 3d85d56c 3d8c1240 bd71b77e bcadcf2a bd4c2e49 bd36bc3f 3d996c00 bd1f806d 3d16e6f0 3d32d2b4 3c3266f8 bd51d34d bbbfacc0 bc83a794 3da69912 3d66e064 3c183180 3d325858 bd82f688 3d4036c4 3d1d093e 3da52ee6 bcbde6d2 bd5df720 3d8b19ba 3da32412 3bd25390 3c92cf1c 3da29092 bd8db59d bcccce5e bd76573a 3d1faa1e 3d5f5684 bd9006e1 bc57a850 bd979e33 3d76ca88 3d856e60 3cda15fc ba243300 ba646b00 3d5faf38 3ce64ae8 bd7f648a 3c85652c 3d856f46 3d5985a8 bd6c5c03 bd82abf6 3d51b31c 3d8759de bd282f17 bd512f3c 3c9b0ea4 bd29254e 3d2cbba6 3cfb5d88 3d84133c bc867cb4 bcc4e390 bd82cd3f 3d94d11a 3d2b352c 3c152588 bd4bef3e 3d8ba6c8 3d995f14 bca59bd0 bd418ab3 bd1137f8 3d5b1c0c bd9066e5 bd1760cf bb0dd3c0 3d593f88 bc3443a0 bd764380 bd625675 3cd92e90 ba3f1480 bca5c5b2 3d523ac0 3cfe7edc 3bb57650 bcc49d42 bd5bd918 bda4f2ce 3d20fd80 3a95a840 3d8a21e0 bcefa3f6 bda15a43 bd375c32 bd6452e1 bc8537dc bd936f21 3d06c27c 3d70e670 3b18daa0 bda674f5 3ce89744 bc8dad2c 3caedd9c bcc83bc8 bd7f1bfe bd873fab 3cc5c268 bcd342d2 3d962b1e bc2d0040 3c2f2bd8 3d5c4214 3d9c2fee 3cf315d0 3d8cd618 3d86299c 3da5afb8 bd8b5c80 3d07e63c bd192613 bd7152d2 3c1a16c8 3d74e174 3d90c942 baa407c0 3d0aa05c bbc15820 3c430b18 bca882c8 bd1a7679 bd52801d bd98bd87 bc1cb3c8 3d9d42aa 3cf2786c 3b8aa5d0 bd8dfc49 bc1ae298 bd9c60e4 3c55e2e0 bcf41692 3d8527c4 3d53d014 bd8ece96 3d3ca5b4 bcac0986 bda386e5 bce672bc 3c23c440 3d37d478 3b998070 3d7dc1d8 bd959446 bd11919f bda600ae bc1636e8 bd6f23fc 3d41401c 3d4a3c4c bd0b5890 3d9b188a bd67d555 bd7d2148 bc82b8b8 3c92c1f4 3d964656 bd636567 3d82eb72 3d0681d4 bd236305 bd5af886 3cdebb78 bbd4bbb0 3d85e0fa 3c206948 bd9a3ed4 bcd1e9ee bd018688 bd3fee47 bc325c08 3d0dcf7e bd50749b bc7862f8 bd10e706 3d518140 3d80e67c 3d89d7d0 3da3c64e bd1f581c bd6a0270 3d6fed28 3d10d518 3c5bf4f8 bd3b3e5f bd85678b bcde1016 3d8a148e bd28ca3f bd55261f 3cf6c248 3d8e1470 3bbdc370 3cb0ece4 3d58ce08 bcc3cda0 bd967894 3be089b0 bd3bfd16 3d04ed22 bd2fe051 3d9c76e4 bc022ca8 3d84bd04 bd6d4fbc bd8f0065 bd1efaa1 bca596d4 3d7e5070 bd81f13e bd0128bc 3cc782c4 3bd1c9a0 bd1283d0 3d5ce644 bd3d6878 3d1ed43a 3ca06334 bd3c1151 3c447c10 3cd0a410 bc057500 bccecc84 3d226cce bd0fb8e6 bc96ba24 bc3799a8 3bc0c2b0 3c4a3b78 3c87fb50 bd8deaee bd528a2a 3cacf29c 3d8a53a2 bd5a7021 bcbe44e6 bd55133e bd82541d bd93eff8 3cc599b0 bbc5da00 bd2bfda9 3da34626 bc2010e0 3c3b5578 3da7226e bd6e4f6c bcdf1c3e bd855547 3cd6d780 bc9a13c8 bda45458 3acde4c0 3a7f4d80 3d98eade 3c889200 bd74a3d8 3d3fb4c8 3d3faddc 3d073584 bd08ae6c 3d463260 bcdc875a 3b7ce340 3ce51a84 bd0c1dca 3d93bc94 3d95d698 3bc5d9a0 bc4ba2c0 bd318340 3d644d50 bd016ca0 3d90e01a 3c5b58c0 3d838658 3d2bc9e0 3d72d9e0 bcb2d1f6 bc3a88e0 bd94c6c5 3d424304 bc50b888 bd5d9ade bcc598a4 bd92e36a 3d874b6c bc28a148 bc93cc24 3c11d428 3bbb2030 3d4f499c bd4393a5 3d85df62 bd2a20d9 3c0c0770 bc819334 3c12c430 bb724bc0 3d082a1c bd474620 bd4d7978 3d57461c bd88b1a7 3d7b030c bda2bf36 bc54c118 3d07fce6 3d15aa3c 3c5271f8 bb06e320 3da0f7fc bd82f0a5 bc8a4c50 3d529c60 3d9b00f6 bc9498f8 3d967d5e 3d048bda 3c7c4320 3d7bdde0 3d37c484 bd95589f bb1ed580 bd9b1fb1 bd594af7 3c4b1198 3c911ed4 3da36854 bcb6a75a 3d861210 3d9d56f4 bc2af4e8 3d9b4f4a 3b81cd90 3cf3aed0 3c8355d0 3d46e6b8 3cf764d8 bc83e514 bd719c5a 3d4de294 3b773500 3da0f0c4 bd60b798 bd665f80 bcecc70e 3d6dea68 bcf40fc6 3c3c6088 3a47d680 bcd6ead4 3c19dea0 bd68b5d9 bd26ec40 3d1ccae6 bd644cd1 3d803cac 3da0621a 3cd5ad34 bd96ffc7 3cd3c7b0 3c4faf50 bd73cc5c bd08b120 3da1db4c 3d2a0774 3d814c16 bcb3f526 3c5d8210 bd2bb96a 3c56e610 3d971250 3da494b8 3d5fc73c bd59ceb8 3c37a6f0 3c5448a8 3c843570 bca5d59e bcc04cd8 bd75a1c3 bbe4eed0 bd7e7b2f bc8c313c bd9730ae 3d80f4d2 bd8157ee 3ceb606c 3da5d452 3d6462cc 3da6d07a bd04224b bd860229 bd8ed6a6 bc6fee10 bd6aefa4 bcfec6e4 bd1fe57f 3da345fe 3cd9d900 3c6719a8 bd204fc3 bcb2f63c 3d9644e2 3d0c48e6 3d16d7d2 bc039ab8 bd9f31db 3c871a0c 3d80f5e8 3d6e725c 3ccb81f8 bd808e29 3d20d2e0 bd5b92e4 3d817e2c 3d47e1e4 3d776cb0 bd7fdb7b 3c86cd94 bd2b85f4 3d824576 3d4b65c0 3da41cea 3b8627a0 bce442ae 3d87ac06 3d67a324 3b097140 3d0ea198 bd11d0a7 3d3fcec4 3d586290 3d59af78 bd2ff67c 3cf5f668 bc8230b4 3da2f416 bcb34818 bd4dabbe bd8e73f3 3d95025e bd9963a7 bc942c64 bd0718a5 bd3eec34 bc952270 bca35a0a bd908e8e bd125765 3d1464c8 3d0250a0 3d957d12 bc8be55c bd8db77e 3d339360 bce4dde6 bcc1a14e 3d1dfb36 3da6b4aa 3d8f050c 3c84d5e0 bc8107e8 3c8fa528 bcba5e92 3d6e3dd0 3c9d299c 3d5500bc bb343600 3c27ce60 3d5f32c8 bd1705c5 3d931fd8 bd430b13 3d792d68 bd5f54f4 bd87f741 bd8ab112 bb7c6be0 3d01a7dc 3c719740 bd746f74 bcec86f6 bd6284fd 3ce01c8c 3c9ca92c 3d0a3c0e 3d89968a bd0a6b11 bd582182 bd5a9161 bd2b571b 3d711238 3d800440 bce79230 bbf81330 bd318f73 bc9c68cc bd95e50e 3d1af1b4 3d1dd09a bd71c542 bb8aa790 bcb32e06 3d32fc3c 3d6c6444 3c35b1f0 bd89894b bd841347 3d976816 bc910528 bbdeb020 bd164a8c bd3b2a00 3d26802c bb0c7200 3c653580 bd88c68e 3d881652 3d599360 3da62e18 3d81a870 3d0ff4de 3c1cf748 bd8d1353 bd72c18e 3a83d380 3d44cb64 3afe3140 3d259aae 3ba4da80 bc664068 3c7dca48 b8fb7c00 bd30f79f bcf0117e 3d8343ea 3d6940dc bc461530 bd74b13c 3d85e042 bd432c1f 3b6acac0 3cd62368 bac85e40 bcbfd06a 3d8908c0 3d4164dc bda13a85 bd369b8e 3b146f60 3d08d360 3d08680c bcacb8a4 bd721e88 3d9d4e5e bd77263e bd79408c 3da400e4 3cfa3f7c 3d147382 bd46ab64 bd4fa3fe 3cc32000 bc61cf18 3d838e8e bce0c17a 3da291ec 3cfcf4e0 bd132590 bd852c45 3d49f79c bd1ef7d3 bd85eb8a 3c3bf5d0 3d2a855a bc94a2b0 3c09f048 bd12fa42 3d808d04 3d99046a 3d5a4eec bda1ae26 bd98c035 3d39b1d4 3d90ed18 3d3295b4 3c056210 bc854a2c bd7b0922 bc3ab3a0 3d9de04e bc0ae670 bda07c36 3c41a2f0 bd97ee5e 3d6d693c bb9b5650 3c22bad8 3c7308e8 bc364790 3c8b5e84 bd74f6f6 3c51a488 3d0038f0 bd6d9db9 bd9fc46b 3ac01640 3cb4c530 bcbc4be0 bd52c5ca bbaba510 3d232504 bd42e238 bd9bf953 3da18830 bd9dbd17 bc4e3418 3d1d049c bd4fbac3 bbee51f0 bb53a200 3c39b800 3c9cd620 bd20364f 3d6408e8 3c287f50 3da52bd6 3bb67a70 bd24c05b 3b32d020 3d9e002a bd5c5999 bbe85d90 bd3fe966 bd2965c5 3d7c4d6c 3d932b5a 3d3ee194 bd60c1d2 bd2d7540 bd8caccb bce08b68 3cc7f558 3d6a9748 bd139c48 bd3e21ab 3cdf19e4 3d880c1c 3be0a580 3d7159b4 3d8e1e6a bc689988 3d9b4db4 3d740244 3cb35c0c bd90f395 bcce7be8 bc8f395c 38945800 bd92332b 3d7e07f8 3d64eea4 3c4617e8 bd878a93 bd5ae412 bda5fb2f bcebe940 3d4c366c bd7eb200 3d608508 bc6b4ba8 bc015048 bce3dad8 3c9165e0 bced0174 bd2690c5 3c526ee8 bd87dec4 3cee0854 bd75e79a 3d7fbc34 3d692cc8 bbbadd00 3b84e7c0 3be7d970 3ce44e24 bc4ed7f0 3c541db0 bbf44160 bd599102 3d00d27e bd8720ce bc66df88 3d9d9116 ba961f40 bbad42f0 3d1968fc 3d9a4aee 3d048e62 bcccfc2e 3d61c010 bbace8e0 3c266808 3d466920 bc3fe3e0 3d014ae0 bb9f3540 3d2be0dc 3d6ff76c 3c8f0910 bbc5a950 bd8525cb bd362624 bc8fb908 3d94b670 3b597740 3ceb3d44 bd3ba36a 3c98f318 bd6738cc bd26c8e5 bd9916f7 3d61e908 bd5c7612 bd4206d4 3d567ed0 3d79da90 3d32167c 3d8f62f2 bd5a15c8 3caa53a8 bd25f6bd bd967687 bd39f449 bcfb4f52 bc38b600 bc87478c bb6f4ba0 bd989a79 3d7f43c4 3d9e3490 3d37b824 3da4096e bcb6c546 bbf73e80 bd8e6c16 3c14f468 bd7426bc bd9af583 bb3f1d80 bd19d559 bd846ac9 3b5f1100 bc28fb78 3d982248 bb94ad00 3c98c164 3d87db6e bca5f5f8 3d6c1eb8 3d9ca8b8 bd0cc707 bd879806 3d38d8f8 bd23a1fe bd8ca924 bd982742 3d9d7da4 3d9f4c3a bd7f2ccd bd130b11 3cb1a8a4 3c020398 bbb15c40 bc48b088 bca025be bd6edfd7 38401800 3c13d588 3d9b7ac6 bc836da0 3d0c88b8 3d5f7e14 bda04cd3 bbfd2b70 3da60e62 bceccaee 3cbfa9b0 bc04a260 bc0bb4f8 3d4f4a14 bc0175d0 bd598497 3d21cc46 bcd838e6 3b0e7da0 3d23c5e0 bcf1b0ce bd8085ad bd5c7876 3d9c053c bce4aaf8 3d420e9c bd5ecb48 3d6bf3ec 3d8bda6a 3bc87140 bcdd3afc 3d5814ac 3d00cbac bcee3656 bd894cd1 3d4fc078 bd196f73 3d05d2f4 bd9f7aef bd994d59 3d4365ac bcd6e3e8 3d910d0e bbbd82a0 3d67485c bc9040d4 3d95fc80 bd83a233 bce7a5ce bc078b48 bd8d03bc bc0e33b8 bd725b0c 3ca7dd48 3c6a97f8 bd9a9ceb bd94fd16 bda3d250 3c116830 3c89eca8 bc8a83cc 3d6f2430 bd99156a 3cf9f040 3d77b748 bd9433b2 bc2a44d8 3d890e14 3d15a328 bbc4eb10 bc242c18 3d6336fc bc05f548 bd9007a5 bcb92f48 3d4b9d5c 3d188744 bc242c60 3cd66d90 bd0e7b58 bd4359f8 3d519df8 bd804c54 bd78e67c 3d5ee458 bd4db492 bd5b0658 3d894eb8 3d4cd53c bd9336b6 bc6d9658 bda45579 bd347e90 bd5c03fa bc4269e8 bcf090c4 bd30cf3c 3d4846cc bd53a834 bd0a5770 3b10cfc0 3cad9e7c 3d8b6678 bcbd80c8 bcb64bde 3c632950 bbf51f60 3ce030e0 3bb66360 3da28760 bd49d54b 3d915796 bd47140e 3d10b97c 3d2ac0aa 3c430620 bd1926da 3d0508ee 3d65f5a0 bd598204 bcb7c0a8 3cf520f8 bd0347dc bd2fb8e9 3d093b62 3d8e7ce8 3d32b84c bd253699 bc364b68 3d1c4f3a 3b678f80 bd2beef4 3cc7a768 3d82ffac 3ccafa10 3d8d9b64 bc87ad58 bc0b91a8 3d724f9c bccd7114 bc885670 bc8edc50 3d81f274 bc056868 3d4950ac 3cf891c4 3d190848 bc740020 bda30142 3da0fbaa bc9dd408 3cc04bc4 bd9c0f4b 3c0f3d00 3b84fb30 3d8c9e68 3d5e4624 bd615124 3cb4a458 3d7c6830 3d557708 bd81fcd3 3da0a3f8 3c566938 3d523f80 3bcbb990 3cadf52c 3d788e84 3c2b7018 3d48275c 3d6a450c 3d454d58 3d2eb4aa bbe255a0 3c6df7c8 3ca546cc bc7256e0 bd86e038 3cf42940 3cc62670 bbdadf20 bd9ce6d2 3d8f42c0 3ccebeac bd247ed3 3d9bac88 bd4ca2c2 bb2c08e0 3c5989c0 bc8e60f4 bd01156d bd1f1dbb 3d4082a8 bb258b20 3c756b00 3d8dab92 bd65d9b2 bc378830 bd72907a bca6d096 bd3f0c64 3c97aecc 3b0b37e0 3d285230 3d4f4e20 bd5687e1 3d7f63dc 3c9288fc 3d05e7b4 3d24fcaa 3d54ce60 3d5dc69c bd979307 bda56a48 3d7f8bd8 bc91f948 bd860822 3d653b08 bd7262ff 3d8c99e6 bb367e80 bd600514 3cbe887c 3c2f9618 bd6a0176 bd898b9b bd597f2e bd312039 bae26300 3d8838fe 3ce09490 3bad16c0 bd3d15ad bda0112f 3caacbc4 bd9e7a71 3d7f5be0 bd259835 3c9d31a0 3b222e00 bd8b6078 bd4ad8e1 3c9094bc 3c6209b0 bd231669 3ba92320 bd819f4a 3d307d52 bd2edfe6 3d264346 bd7c700e 3d2d142c 3d76c3d4 3d2a0ef0 3d80ce7c 3d94df84 3d6a4f94 3ba69f40 3d7e6bf8 bc848d74 3c948764 3cdd4fd8 3d064cfa bd5583ed 3c807548 bcf052a2 3d2d6dec bc075450 bbc0cf30 3d3e5e70 3d50ec48 bcfd7eae 3d44ea24 3afb4000 bd589770 bab7d100 3d941bc0 3d5c9a80 3d8887ce bc48de80 3d81e3a2 3d833024 3d392c74 bc15ca38 bd60c102 bc7c2f28 3c254e80 bd2007c7 3d52cb34 bda13755 bd16b999 bd3b071b bd07ecef 3c38aa60 bc812104 3cd3e0c0 3d0c9c46 3d6875b4 bd9667e5 bd24c8cf 3d887b90 3da2e950 3d4c96f0 bda2d1c6 bb308040 3d3a5c98 bc501a70 3d82fcd4 3d8f3dac bc89dd98 3ce29558 ba8d3dc0 3bd3af50 3d91a40a 3c9524a0 3d8a6e00 3cee5018 bc6bdc28 3d94309a bd5db68c bd7dc237 3d0b5b48 3d6f2bb8 bd67c008 3c0fd4d0 bd484d41 3d1b7c3a bd65adda bd8b6833 bc3470c0 3d9ab63c bcf0755a bd8fdea2 bcb6ba0c 3cf34b7c 3d2114b8 3d964ae4 3ca26c10 3d3eb678 bad82740 bcc16f56 bb4e6fc0 3d92b300 3c9411ac 3cd7ae58 3c0ceda0 bd3756a0 bc0df898 bce35f3a 3da0aa94 bbd966c0 3c8e4cb0 3d91a030 bcd30e08 3d2b39f0 bd27d680 bd298524 3d24f698 3c026b68 3d684f9c 3c29c088 3b4d5980 3d7321d8 bbff2cf0 bd425248 3d8d6a74 bced9b3e bd903085 3d978860 bd889756 bcb1afa8 3d84e876 bd6027f2 3d7b2074 3d9b55c0 3d2ddc6c bbc7a7a0 bcaa1256 3d6abf28 bd70a048 bb71d760 bd91e743 bd01751c 3bba2850 bcbca620 3d022cbc bcfee7d6 bd806499 3d86e632 3cbf4290 bc8890d4 3b14ff00 bd6d783a bc264988 3d849e26 bd2d5be6 bd8a819e 3d0df556 bd4a0fc4 bd1a74c4 3da31ca4 bd97b79c bd4284cb 3d37b6ec 3bc1d980 3cd31ed8 3d90b948 3bd08880 bd7d687e 3bff9480 bd9dc192 3c559d10 bb0ff240 bd4e9848 3d45de74 3cc18958 3bcc07e0 3d4d4560 3d44f7f8 3cf1127c 3c95553c 3c452dc8 3c2ef180 3d3795cc bd5f15b4 3cb7cb2c 3d9061a8 3ca80334 bcdd973e 3d3ed3c8 bc176030 bd163b7e bd727bfe 3cea8988 ba20dd00 bda4133f 3d4cf750 3d88ca80 bd0e974f bd7abfa0 bbf67c70 bcd09868 3c872bb4 bd87c766 bd8b20fb bd19f17c bd8087ee 3cce6f84 3d887888 3b8aa210 3d1dec74 3ca4a790 bce0c7e2 bd549ede 3cd0189c bc248fe0 bd96c9ff 3da272d0 bd6f9bf1 3d265cee 3c6fd130 3d905ea0 bd047220 3cb3ba8c bd7d9483 bd81179a badafcc0 3d9b65bc bb2c9fa0 bb9332b0 3d390840 bc192b80 3b256b60 bd2c575b bd40d9fa 3da35fb6 bd4b6b83 bd8e3eab 3cdb8b48 38548000 3cb2c3d8 bd71615f 3d3bbfa8 3d31582c bcce951a bd2ace97 3d017f7c 3cca3ea0 bd2ff946 bba990f0 3c887d24 bd258b64 3bd0e130 3c97bf80 3d3ce648 bd801f29 3d7a5f54 b75f8000 bba7ec70 3d0479c2 3bdb6680 bd9533f6 bd9291e2 bc7ca328 3da21230 bd821d86 3d9dc45a bd160127 3d3ab400 3c3c4b18 bd8b010a 3d7d93f0 bd714802 bca15880 bca968da 3d87cdfc bd860feb bd9b50dd 3c188b58 bcc72d94 bd4d8659 bd57ea76 bd982a61 3d8aa80a bd833f48 3cd6db04 3d35d334 3bf40c80 3ccb3138 3d0a8454 bd98e25a 3d6f8564 3c9ed9b8 3d9da738 bd2c2f6b bd25cd06 3d952328 bda62097 bd48bc15 3d66df44 3d09969c bd7339ec bd44edde 3d7469e4 3cfb15f4 bc9cf550 bd8698bc bd964ab5 3d7e0e74 3c38a168 3d2f92b4 3c0be288 3da05350 3cd8dc5c 3c9fcc60 3d3dc750 bd32dc63 bda6b9d0 3d682de4 3cacb460 3bdb19d0 3c22f510 bc827998 bcb654ee bd7dc5f1 3c709c30 bbf030c0 3d7b8f4c bd3f9d89 3d00370e bda193ea bd9ba775 3d373c34 3d553ec0 3a8fe740 3c5e2b50 3d9f5342 bd869f4e bc90c20c bd7b962e bc87064c bd223c3c 3cf39ff0 3cfd2ad4 3b6aade0 3c0685b8 bb8dc7a0 bbd542d0 3cc78484 3d9302e0 3d27b3a6 3c558840 bd0eadf2 3d69ec84 bd62c2a2 3d9b2784 bd3bac4b 3d2e8574 3d284c06 3d2dce16 bd9619e6 bcd90188 bcb34d1c 3c365888 3da52b04 bca519a4 bc730870 bb9e42c0 3d97fc96 3be91e80 3d065716 3d120788 3d973a4a 3d5f4de0 3d9fb89c 3d9d2bcc bd35b607 3d886bd8 bce9ecc2 3da5012a bd50cd74 3d690ffc 3cba1c5c bbd5c0b0 3da6ccf0 bda65863 3d2f32ca 3a560b80 bd566252 3d9e2b9a 3d776e90 bd9b013c 3d65b4f4 3d6c26b8 3d4f4990 bd7a462c bd804c44 bd083cf8 3c0650c8 3da41f08 3c7370d0 3d9a2916 bd53b140 3b8655b0 bc780908 bc489fd8 3ced61ec bda5d9a9 bd1690a4 3d06cd26 bd8138ec bd9f9080 bd4179a2 bca3dd94 bd22749d 3d6263a0 bbb6c4a0 3bf25bf0 bc583010 bd47bcd1 3cd3f4d4 bcd6e586 bd8b9be7 3a885dc0 3d1053dc bd9437c8 bd4871a3 bd2f82fe 3d667350 bd826d8d bc45afd8 3bbddca0 bcd86c60 3d36d988 bd14b110 3d7b603c bca8963c
conv2.bias 16 bd183967 bcb1ac8a 3caf85d8 3d9590dc bc08d180 bc8ccc48 3ce542dc bcece930 3c1edb90 bcca9fee bd0abf1a 3cb3e730 bd447f2f 3d868b52 bb795ea0 3cca0b50
fc1.weight 48000 3c162c20 bd25196a bd00141d 3b405a00 3d0bdd13 3d17c13d 3ccd53b2 3cfa7dc2 bcceedf3 3cae0646 3c39fa54 bcb9b1e0 3d316fcb 3ca5184e bcb5943d 3d12c4ff bc366334 bc041260 bcfd4dfd bce0d9fd 3ba82018 bd0a79fa 3d26306d bce14473 3c89c8ee 3c7e3a64 bd227d42 3d325899 bc682eb8 3c98f736 bd2c5c2d bd30d100 3c8acbfe 3d0cd2c9 3c78eae4 3c00b18c bd042d14 bbddb8b0 3c86b092 3d1190eb bc89c824 3cfd0d66 bcd3e6fd bcbe9020 3d18fa33 bca6803a bce3a2dd 3cc6e0fa bca4f0f0 bc8b8fa6 bc4c95b4 3d24fb0b 3d2b0501 bd0cf418 bd30eb52 bd45f07f bd451f53 3cf98d52 bd2fa5ad 3d18dc69 3d080b89 bb10a860 bc196108 bce76093 3cc0c272 3cdf6892 3cbe7456 bd00c0b5 3c9b77b2 3ca86286 3d08a887 3cfb7162 3c5e61cc b982ed80 3d48ab1b bccdacd3 3c02d8f4 bd3be923 bd4c893f bd08161c 3d3ecbc5 3b31a9e0 bc7a63c0 bc8af456 bb2d20a0 bbf68ba8 bd2b8d36 3c87adfa bcc35233 bb01e330 bc049c14 3d03d6d1 3bde4bd8 bd3cd3e8 3d470d0d bd4a0c8a 3d051513 3d1daee9 bce0653a bc132188 3c8e1912 3cea7c82 3d2fc7f5 bccb1147 3d20704d 3bdc1650 bccf02ad 3cec8012 3d4c1807 bd0b5e15 bcd1bd5d bc7d9598 bcdc948d bd065bba 3cc170c2 bd10ccb2 bcb32567 3ca2f972 3c0735d8 3c751e6c bc2df66c 3c90d34e bbe35028 3d3a0055 3a69c4c0 3d195c2d 3cd79fea 3cf2f5fa bd06b225 3cc15b32 3b556960 bc08acc0 bd12a34e 3d36d909 3c800da2 bd0c187e bd10a1a2 3c817822 bc85306c 3c3be914 3c904632 bd4436e2 bbf66950 3d293a53 3d02dd87 3d21bf89 bbf52618 3d1f4a6b bc82cc94 3c95bbf6 bca0856a bd24dd33 bc4d5020 bd479577 bd487ccd 3c1d0240 bb577a80 3cb62ad6 3d312e1b bc9cd6e7 3cfe04ba 3d134209 bd1e99aa 3d1fab5f 3d3808e9 babecc60 bca54027 3cd71e6a 3d092067 3cd54cde 3b8d2c30 3b30ade0 bc2abc28 3cdd6a32 3b99b3a8 bccba0f0 bd179270 3c442bac 3bc3e318 3d3e8c3b 3bb53270 3d4c7e57 bca1f1aa bd100d62 bbd6aa00 bc955104 bc0842c8 bc7b8148 3d3b477b 3cb5cd02 3c04c3f4 ba573ec0 3d437871 3cb590e2 bc4d6bb4 bd4403f8 bd43d52a bc9a82fa 3c0ea818 3c0b7db8 3cc1d0aa 3cba370a bcaf11dd 3cc57afa 3cdf011a 3c590cd4 3d25272d bd13ad08 3c019648 bc30d3d4 3d38f621 bd203e8b 3c867c4e bd12fb4e bd09ab2d bd3a4103 3c2a9f88 3d3aa97f bccea2d0 3b6afdb0 bd273b1e bd13426d 3ca1854a bbeadc00 bc052cc0 bce7cea7 3cfe80de bd1cd538 bcbc790a 3d0529e5 3cb457f2 bd3c903f bd46f092 bcecba87 bd44e62d 3d0f848b bcc70fdd 3ca2e592 bd265b82 3c497934 3d3ee499 3d04a2ab 3d3783d9 bc2fab08 bbdbfb00 bd299538 bcad5293 bcf90ce7 baf19c40 3b2e8d00 bc501be0 bca94397 3d47b7a9 3bc91080 bd39a0c3 bc91d2f0 3ce22d72 bd406e38 3d3e8e3f bbb1e230 3c9d75a2 bc41ecd8 bd054860 3cdc4476 3c7849f4 bcdbcb20 3ca80342 bcd681ba bd165c58 bd49d01f 3d16df49 3d25e59f 3d0d5fc3 3d0d9f99 3d3ba7ef 3a25c800 bd3df5b5 bd019244 3cf456f2 bd21ecc3 bbd18a28 bb7a5ae0 babbc600 bd39dbe7 3d29b047 bc06fa48 bc31776c bc9468c0 bc124838 bc030e88 bce56770 3d298373 3c045fc8 3bc2f130 bd10c49d 3d4aabf9 bc7d062c 3d030e75 bce04017 bbd687e8 3b088520 3b377c60 bbc64768 bc387cc8 bced8140 bc7e8e78 bd1c626e 3d1f430d bc9c1210 3a4e2600 bd2b8f03 bd17a105 bd05ed4e 3c9afcaa 3d3ed291 39c00280 3d1e4391 bd3e6a3d bd4b4a7a 3c9d55da bce0529a bcd33740 3d2230fd ba61d680 3d031261 bc95390a 3bc4dd00 3d444163 3b7f4c80 3cea0222 3d37feab 3d242e31 3d2ae125 bcd03ee7 3c9699e6 bacddcc0 bcbac9da bce45cc3 3cb29762 3ccc9cb2 3ba8ec28 3d2bf539 3c83fd76 3d266f73 3cd2d3ce bc021960 bc961a4a bd2a7106 3d4c8223 bc634474 3ca376a2 3ce717f2 bd0e31c5 3cc65656 3cfa535a bcd3a033 bc9af21a 3c218e54 3d2dee73 3d3c9055 bc24994c bcc41673 3cc22a2e bc08b958 3c0362f8 bd25f176 3bbbc340 3c4fdee4 bc910630 3c04ab20 3d2651e5 bd3ccad7 3d368b21 bd0315ed bd34f8c7 3c1bce38 3d43cd95 bd0e6e43 bd3c20f0 3d26922d bcbeb9bd bd31f6ed bd36c718 bc668428 bd461caf bd330033 3caaf7c6 bbd65270 3c7fe12c 3cd6fc02 3c15be48 3d2bff13 bce5b1ca 3d035dd9 bb2c7920 3d201157 3cfa4b12 bd184353 bce3ab63 bc800516 3bb32690 3cead89a 3ca95bae 3d03e745 bab71aa0 bd42972d 3c72d4d4 bd1cb7e0 bcfd0057 3c270880 bc60ef48 bd369bdb bd24a95a 3ce40f0a bbad8100 3d2f9c89 3d04dcd9 3d3aae6d 3cd530c6 bd49a6f3 bc8682b0 3cee77a2 bb90a210 bcb92f1a bc44dfa0 3d06fae3 bc82359c bcd564b0 bd03309c 3c9d357e 3c12b8a0 bb1167e0 3c4049d8 3d2c3b3b 3cfa2a9e 3d1c0023 3d38f771 3c00a348 3d0c23d9 bd02ba10 bced914a bb80bb68 3c893fde 3ca3889e bd16e286 bc880bf4 3cfc66ca bcee747a 3d3ffc99 bd3eadf8 bb3ef730 bbf96890 bc6a784c 3abbb740 bc7919b8 3c9873fe 3d33d7a5 bc02d254 3ceff182 bc911d26 3d08b725 3bef8ea8 ba9c4440 bd43c850 3d294701 bb3f7f80 bbb4abb0 bc986da6 bb9b2e68 bac4f4a0 3c3288d8 bd1cd872 bc86dc16 3ce25812 3d3fbe07 3bbaac10 bcd56463 bccefb27 bcec12b7 bd225222 bd06a2a2 3d4c24f3 bce845da bcf6a507 bcfb4f5a 3d234fad 3a128d80 3cea904e b9005a00 3cbec45e 3d2e66cf 3d3d8439 bc17fe00 bd31718a bb6470a0 bc38bc0c bd35812d bcda4407 3cae55de 3c8fa156 3cbd960a bd2fd802 3a774d80 bd3e3b25 b9993c00 3cecf432 3ca7f026 3cd2fb2e bd31f7c7 3bb52eb0 bd1999b5 3d38af11 bc18c22c bd0cf476 bcfa3843 bc87496c bcc2d417 bcfb0dd7 bce50fdd bcf84167 3d010b51 bcf70d00 3d26d897 3d11144d bb80ae40 3cab6236 bd00c686 bd420165 bd38b4d7 3c741b4c 3c8fea42 3caa2152 3cff7586 bd1d3686 3d368e37 3ca0e08a 3c44fb78 3cbc2402 bce49743 3c204ae8 3d3b00fd 3d455ded bcc2c61d bd3ba87d bc22e108 bc8b2b64 bd0f6878 3c56df7c 3ceef48a bcec5aba 3d393a9f 3d0e2a9f bcc6ba07 bc9df490 babf6a60 bc771138 3d2c5cb9 3ca5f5ee bd447438 bbe9cd50 bc8027ac bd2c7382 3b18ebd0 bb4814b0 3cfec71e bc2c5a34 bca53b27 3ccfb236 bcb86537 3cd8d316 bc41a8d4 3c80bbb6 bcd6590d b8c34600 bd28e3ca bc40432c 3bda0398 bd027bba 3d4cc377 bb445f20 bd46bd8f 3c78442c 3d35e52f bd0607fa bd0e8086 3cbfc476 bd36ddbb bcc13bcd bd01d22e 3c1f7858 3c3c07a8 bc89158a 3d01ee07 3d46d075 3d04b643 bd136733 3d352adb 3b8dc818 3bd81c50 3d1773e1 bd328ae7 3d308bd3 b9f2ed00 bc9e543d 3c1207e0 bd3a7f52 bb458980 3bf2d2d8 bd0ad6ba bbc8f730 bd01d502 3cd6f996 3d393dcb 3b4337b0 3d075109 bd37f0b7 3c59e66c 3d21c8f3 bc3cda08 3d41750b bd470a02 bc285b88 3d3157a1 37970000 3ba7cce8 3c8ca0fa 3b629080 3d4c3e29 bd100570 3c333b8c 3cde724e bd16bd72 bd422033 3c085d34 3cdce112 bcb79047 bc230860 bc9a2707 3d0ce123 3c537dac bd144536 3d3191b9 3c4c4ee8 bd33e31b 3c6be3f4 bcd9b2ea bcc25c30 bd1d0796 bd311f18 3d00207f 3c8950d2 3d0367c1 bad02340 bcaae397 bd12079e bc45346c 3bd43758 bd1c4c35 3d06e325 ba64b480 3d0b017d 3cab71a6 3c92b24a 3d0332fd bd069e1e 3bfbcc00 bcbbe06a bd0110ad bc88fa46 3be30c10 bca5373a bc2246d8 3cf74dae 3d0393eb 3c344e28 bc8e8c94 bd2a8d6a bbaf8db0 3d37efa9 bb0d0bd0 bcaef3e0 3d303c49 3c7caf5c bc2b3bc0 39c64d00 3d15d491 bceb45c7 3cdcaa32 3c07aaac bcfada43 bd0ecab8 bd157a4b bc359d34 bcf04207 bce7c660 bd3b85b7 3cf43782 bd395333 3c586694 bc1c8118 ba4470c0 3ce03b2a bce3c23a 3c5abf1c bd461bbb 3b8c2658 bd2819b3 3c765d0c bcbc65b0 3d1bff6d 3ccf3882 3c59f2cc bd399f32 3d3c57c7 3d3ecfad bcd651a7 3a4964c0 3d4332a3 3a9da760 3c813e76 bc0b0198 3d198127 bbb7b080 bcc53e67 3c83a04a 3c3ae560 bc224e80 bcafa410 bd11d79b bd1b7e0e bd1e066a bb8fcc50 bc28ced8 3ae43600 3cbc3b22 bbdd59a8 3d179341 3c2826c0 3d0d66d3 bcd877a3 3c8cc986 3b41b730 bd3aa5c7 bcffcbba bd487b0b 3cf422de bb828a98 bcf6a7da 3bf19b68 3cbfcf62 3c6396d4 bd3c1f1f bb515250 bc05fc8c bd0d612b 3d1063ef bcdc8b6d bbf12068 3d37b879 3cb7fb92 bb759e80 bd07cee5 bc4f2aa8 bd39d7f0 bc857ff6 3c00cfc8 3cb6aca2 bd3d7bf3 bd3b43b7 3d2a2db9 bd0b361d bd2ca1c0 3d3e3d51 3ccbd5f6 3d380321 bbfc7a30 3d2b1091 3d3b78ab bce00f23 3c5a1c7c 3aca87a0 bcb6ce07 3b9745f0 bd137522 3c588764 bd044b4e bb98fff0 3c5ecbcc 39b1f100 3d014281 3bce02e8 3c870c52 bd3a89f2 b9dc3100 bc8c0cb4 bd20e69a bd3a6ef8 3d1643a1 bd3da948 3cf24db2 3b4e4860 bb27d360 3cbfef6e bd335e82 bbf9a590 3d351695 bd2f1990 bb263980 3d33377f 3c849fb2 3d39a8cb 3d48edc5 3c52dfe4 3c68ed54 bbc7c4b0 3d491979 bb300bb0 bca81cf7 3ce2e73e bcee7d50 ba3a8000 bd16b4f6 bc373134 bc83b6c0 3d386c1d 3cb4b99a 3c984f1e 3cd59766 bcf5a707 bd49d8ed 3cc23902 3cc6e316 3d06c8d5 3cadcf62 bc8dce1c bd1002ce 3c21056c 3cd7f80a 3d49f759 bc047d14 bd1724b8 3cef5f9a bd364f30 bd12df1e bcae517d bb2d2ba0 bceb82fd 3c185cc8 bb7fd5b0 bcc7d0d7 bc8931d6 3c830776 bd12ff00 bc8cefb0 bce2fb6a bd3b8b8a bcbd1e40 3cd71b3a 3cfd1fd2 bc4fe78c bcfef033 bc9debb0 bab61040 3d1aada7 3d09d349 bd170b22 bc8e65b0 3cf13256 3d3a220b bd0ed695 3ca6923a 3cb31542 bd183100 3c3ab48c 3d0a44db 3b1813d0 bcfeb847 3c9f9426 bbdefe80 bd363f2a 3d208207 bd14c818 bc16f960 bd355df0 bc3cf28c 3c9d7e82 bcd4f76d 3cd0da36 3c176b38 bcc5d963 3d295979 3c29b26c 3cb450f2 bd2cb6db 3b653cd0 bd32a01f bb58f530 3b90c4e8 bd3b2a9b bca9e8fd 3d115299 bc854780 bae59640 3d237a93 bd26a4be 3d45c6f1 3c0db86c bcaec063 3cacdc7e bb933bc0 bc0197f8 3cb619d2 3cf86f46 3cff7842 bc0d164c bd0256f8 bd0c7180 bc534860 bc777d80 bd0404c5 3d2dea65 3cf34c7e 3c2f2c8c ba9835a0 3cf6747e 3bb11c30 bcaca290 bbf1eca8 3ca11f12 bd447610 bc91a5fc bd0a0f60 3c3860ec 3d377f6d bcd8596a 3ced221a bccfc2d0 ba630140 bd4c2358 bd341927 3d0d4251 bc815eea 3d05a8f9 3d19fb91 bd4a9898 3cb506b2 3d06c7a7 3bd50fb0 3d241005 bcb51f80 bd3e9e22 bd1af8a0 bbeb1940 bc5e1534 bca9204d bbf0e7e8 bba1bc18 3c77e1d4 bcf879da bc1c74f8 3caedaf6 bd11db93 bd44abbf 3c7487f4 bb7b9660 bc9e7dea bd202546 3cd6879a 3d3a1dc9 3bdbdea8 3bbbc2a8 3d320c23 3d393519 bc8f4fac 3c7edf8c bd29d6a3 3cdf7906 3b9f4a30 bb9e9a98 3b42b280 bbfde0d8 3c1786cc 3bed34f0 bd087a25 bcca8a40 3c9d0176 bd434b1a 3cdf833e 3c769d44 bbc3cc30 3d473975 3d2970d9 bbb0b7e8 bd2ff93d 39b79180 3cd84be6 3cbfb2f6 3d3de55d 3c912152 bca79ada bc590e54 3cd1c5a6 bb91fad0 3ce0b4ee 3d1e4e85 bcc2b22d bd358f9d bcbad4d3 bc4a02e8 3c5558b4 3b927bc0 bd3b1eb7 3d0197d9 bc06aa2c 3c7d0fe4 3cd9933a 3bdc79f0 3d27bf41 bcdc3c4a 3cfd5052 bbca7510 bd2b0ef5 bcecfcf0 ba5ea340 3d3e2a3f bd28ae40 3d3695b3 bd4838b8 bcc1f3c7 bcbd53cd 3d4238b7 3d168775 bbe94450 bcb7e953 3d4001ab 3c4d9b54 bccef1e0 bc69d3b4 3cb21846 bc0d51c8 3cdfdbe6 bcb1fbdd 3cdde96a 3d17c693 bd230d4e 3c10f140 bd26fed6 3bb36318 bd232c06 bd220d3b bd240746 bc8f4500 3c625744 3cf41912 3caefb86 bcb163d0 bcf502d0 3cacf3be 3c4cba98 bbfcff40 bd2f06d3 3d2d0ee9 bcee4723 bd4504ad bb7585b0 bc334040 bd26ca60 3b140fe0 3d363d7f 3ce5da96 3cd90dfe bb152460 bd12c073 bc8fc110 bc2ba214 3a4b8480 bd277d7d 3d1ae0f1 3d0389cf bccd642d 3ce5ccea 3a19d200 3c5a813c 3ce1895e 3c17ff28 3d291ba7 bcda5ff0 3c2a13c8 bd177fc3 3cafb982 bc6df128 3d1e2efb bba03490 bd4bbc5d 3b87ef68 bc2682ac bcbbad1a bc747378 bd4a978d bcb17727 bb04f230 bd320ffa bd1f97ce bce08467 3bd4b4b0 bc977980 bcca9b70 bc48fc2c 3d4bcb2d bc507ae8 bd037c04 bd2254b5 3bc262b0 bce6a497 3cc7f1a2 bca6ea90 3c0f12a8 bd47ccab bb827400 3cda2e9a 3c805482 bc17d148 3d02aa53 3c111d78 3d06a4a7 bced8de7 bd2c25c8 3ba76e58 3d214d61 3cadf98a 3d035965 bd3f55a8 3c3d7dec 3cc09212 3d496b71 bc57d3e8 bd2a9dd5 bd0912fd bc648648 3d472b97 bca9b773 ba0dcb80 bce8cdf3 3c211060 bbd39918 3c65f73c bd14122b 3c2d7f20 bd2c71dd 3cdf856e 3d362249 bc46ce94 3d4c1b31 baa5ae60 bd2448ab bc168ba8 3cf311ce 3d16f2af 3c739f84 bcbb6f0d 3d0207b7 bd1afd05 3d40fd15 bd11085a 3d48da4f 3d21eec3 3cbead0e bcf93903 bb26f280 3d093fd3 3cee9766 3d4c9091 3cd8270a 3d37b317 ba21b280 bd0b8b6a bc4f1a38 bc5d0ed8 3baf7298 3cd164f2 3d35f3cd 3cf4f0e2 bc79bf60 3c0e13d4 bbf7fce8 3c4cb780 bd3b3545 3b680720 bd1a016e 3d38e3bd bada0000 3bb6b940 3ce1b6e2 3d4922d9 bb649ba0 3c9c1ac2 bd2f8d6a 3d1b4321 3d4636ff 3c7fef54 bd0b6904 3d1171e9 bcc2e0a3 bd4be058 bd3d1dfb bd0ebbe6 bcc37037 3cd1be62 bd400c73 3b22eea0 3ca8a0e2 3d367f61 bcbc93a7 3cf4074e bc6cbd4c 3d25b21d bc94159c 3d011caf 3d08fc09 3cb4813e bc278308 3bf420e8 3cddd45e bd01a4e4 bc37acf8 3d24054f bce10cd0 3d10a9e1 bd2f2550 3bb2eed8 3cabf49e 3b075db0 3ce4d48e 3b8f6b00 bc15af54 bca79683 bcc0a393 3ca26342 bd1b63eb 3c32dd28 bd0089fe bc671cd4 3bb90f68 3d08d975 3c730424 bd35444a 3bfc3a80 bcfcadc7 bcc02533 bcef3b9d 3c76bcec 3a7ffac0 bcc41417 bd40d100 bcd82d7a bc1a9d8c bcf502ea 3ceffc2a 3c36e9ec 3cfb65e2 3d1f70c1 bcf9d1cd 3cc9e492 3d13cf01 3cde51f2 3c8d7e82 bc163d0c 3d410113 bc23e648 3d2e1a79 3d24088f 3b4e6da0 bd31bab7 bd414330 3d430961 bc8a784c bc85661a 3b77f9e0 bd079a86 3c0033b4 bbf19250 3c841512 bcd207f7 bd202b4b bc839b84 3d059b61 3cdc2f02 3cd8fca2 bd3efe63 3d49dc4d 3d3011cf bd0fb645 bd0fe385 bd10dd42 bc324b78 bd226782 3d1cf047 bd428ee8 bd1dd2c2 bc13e0a8 bcf23110 3d1e8125 3be4fb70 bd48d64a bd27ac5a bb3a3530 bcbd1ba7 3cb1c4aa bcbf0aad 3d3d0291 bab2f240 3cbf4ff2 3c17ca54 bcd2176a bd2fb1e7 bd2a6910 bb3f1fd0 bd3f43cb bcc322ad 3d326159 bc2060d8 3a9a86a0 3d31c5b5 3d06e381 bd39a9c2 bd10de98 bd3e3228 3c6fb26c bc88ab60 bd1a5820 bd21e372 bd19b3cd 3bd5dcc0 3c9dc442 bd18e486 3c8985b2 3cb9cc26 3d272cbf 3d3c766d 3ccfd022 ba83d6a0 3d2de8d3 3cea835e 3d3be2cb 3b140520 3c79b2d4 3d24ca8f bc030f08 3bd6c228 3d12ada1 bd2607ed 3c9599a6 bd173606 3cc965de 3d49309b bcd0a5b3 3c886c06 bcedf1f0 bd3d27ed bd0c7edd bb932df0 3d102331 bd1f7005 bab297c0 bc9f9dba 3c96ae0a 3cc64152 3d03a2b1 bc171fe8 bd2ce412 3c714504 bce096ed bcb90d1a bca43b2d 3d446f45 3b0beb50 3d49f753 bc54748c bc86b824 3d4c77a5 bd402237 3cf2449a bceea580 bd3e5167 3c3d1ccc 3b98ceb0 3cd5b7b6 3b89a050 bd317475 bd0affdc bb9ed200 bbe2aab0 bd36be6b bd475c98 3c60abec bc059780 bc266394 bd30ddfd bd0181e5 3c8a2d02 3ce335b2 3b6452a0 3b586500 3d321341 bd486542 bba81c68 bd2b0faa bc26baec 3cf0c642 bc812fc0 bae6a140 3be66be8 3d2bafa9 bcee18f0 bc7fd620 3cdecb9e 3d06f38d bcbe2a63 3d04b061 38d27400 bcaa42e0 3d1a42f3 3c376740 3ca86812 bcb4b1d7 3c842042 bd07c01a bb71aba0 3c98b2ae 3c86efe2 bcaecc27 bd4946ff 3d2e3ce1 3d443f99 3a44d4c0 bc96d31c 3d2499fb 3cfa73ca 3c242dec 3d17e819 bc686f48 bc9f0e9a bd2d9c30 3b7e70a0 3c124da8 3d0fecab 3baa92b0 3d049221 bcfa8127 3d4a9191 3d33e9c7 3cbc3efa bb3e9f20 bd3ba720 39f79280 3d3dffe5 3bbd82d0 bbfd62e8 3d1dc8ab 3d237b5f bd2b56fd 3c0a6468 3c88e436 3d19da41 3bfe1030 3abf3ba0 bd011e8d bc0921e8 3c842822 3c3eeaf8 bc7e456c b95b6000 bce4c39a bd44baef 3c921072 bbb44068 3bca82c0 bd0c5faa bd08b914 bc3f9440 3bc3dc18 bca6ae1d bc833724 3adbfa60 bcd38a23 3c53ac7c 3c5df3bc bbdddc80 bc129f08 3c09ba0c 3b993da8 3d11d1d7 bcaaa840 3d409753 bcf07dc7 3ce0531e 3bfb15d8 3caa9c52 3bfc9640 3d0f7f19 3ce73f4e bc993fa4 3d2592b1 bd175cd5 bd428c3a baa654a0 bd0afbce bd35f822 bc3c7aac 3c1f28a8 bba59dd8 3b1b9ce0 3d4b3897 3cfd09ea 3d267b51 3ba3b5b0 bd1094aa ba7bd480 3c9fb1c2 bcf2f81a 3cef215a 3d2b33b5 3cd54002 3b651de0 3b4418d0 3d49e281 bd27dbca bd41ca65 3bf65780 bbc848e8 bc3b9b88 bd3977ef bca1a10d 3c3a01c8 3c89c742 3c1921b4 bbc30128 3c5ff7b4 3d0d7b95 3d19c107 bc3f4aec bc13ab6c bc6e37f4 3c930fde bc9e475d 3bc33798 bd4a240b bd2239fd bd081d00 bc732d4c 3d177f31 bc22b2cc 3d34844b bd1af573 3cde207e 3d3e4f51 3ce92b76 3c05bd74 3b30b450 bd1b4738 bc71cf74 3c1cc228 bc1e740c bcbb9430 3c585f4c bc50d4f8 bc46f4c0 bc0b5854 3d368e4f bd13accd bca1421d bd324522 3b63c0a0 bcb138ba bd4c90b3 bcf4df70 3cc18292 bcc754b7 bd0672b4 3d053acd 3cdee9f2 bcb72b37 3c7a885c bc344134 bceab3f7 bd051874 3c416a00 3ce473d2 3d4c06a1 3d409787 3c2f1f00 bd2c8880 bc70d508 3a550f80 bd47af60 3d48d70d bcc1dcba bd010a5a 3cd314fa bc95c424 3d301687 bbef8550 3d3ed6d9 bc6fe2d8 3c59b794 3d15f287 bd1551cb 39ae5a80 bd082b52 bd3902f5 bd4cc4b0 bd323ed0 3c9916e2 3d1305a1 bc454ff4 bc88fe16 3d0bd059 bc6b3934 bcfed500 bd009c9e bcf60cd3 3c99d36a bd10b166 3d46c995 3cd725aa bd0c3cf0 3cbf78ce 3d2d7125 bcbe4e63 3cb44402 3c83c27e 3b80b780 3ba8f240 3d27607b bc12e474 bd1f9d82 bcd73150 bc054cd8 3c869302 3d1730cb bd3c7f8a bd11f4f5 bd3fb32a bd0b8885 bd3632ca 3cfa5346 bb9725d8 3d26a2bd bcc74d50 bcaf691a 3c6bef64 bd09ff6a 3bdaa2f0 bc051ba0 bbf72490 3bc656b0 bb405320 bd2f3940 3d452e75 bb413700 3ca45dca 3c8db46e 3b9b5670 bd468df2 3d45a90b bcb6875d 3d3d59a3 3d4a9099 3ccd4d1a 3d092147 bb7a26a0 3d19857b 3d0fab55 bc87d6e4 3ced7732 bd19ae95 3cc7996a 3d306167 bd30818a bd2b006e 3baae390 3c4a7a2c 3d26fc11 bd307062 bc7e6b40 b9283200 3d420b57 bc8656ec 3cef811e bd3ae40b 3d2f9187 3c2bb68c bd1192d3 3b534320 3c099ec0 bd21c742 bcb72c1d 3d19612d bbcf6bc0 bc6801c0 3b20cc60 3d2c668d bcafe4b3 3d3c52c7 bc0f6068 3d19563b bd1ca2c2 bd2aca66 bca4aa53 3bbdd190 bb64f9a0 bcb936da bc5d10a8 bd0aab3a bd240766 3cea4aba bc8fa0b0 bd13e080 3ce3e02e bca68a7d 3c84504e 3c8e629a bce8163a bcd1db3d 3b5f4c60 3ca614b6 3b1ede50 bca66cda bc52c934 3d371753 3bf48f90 3ac02c00 3c9094ce bccebcb0 3c4595a8 bd4c7228 3c8bb69e 3ca27e0e bce05ba0 3d01872b 3cda46b2 3d13d799 3d0221c7 bd135edd bd386b0a bc89dc70 bcede83a 3c27fe60 bb8770f0 3cad4e7a 3d2e1da1 3d389531 bcab3883 bd2c02db 3c1bf3b8 3c282fcc bd2d95a2 bd33122f 3d31c077 bcefd68d bd43aa3a bc4558d4 3ce113ea 3ccaf88e 3b62e1a0 3d1fc8d9 bd247b8e bcbea0c3 bcf1783d 3ce7a302 3c6381a4 bcef8b70 3b12e920 bd0bf0e2 3c913f12 bcc4222a 3b05b8d0 bcf4c257 bc3e2258 bcb0334a bcf3f483 3c48de14 bc77fd08 bafd5e00 bcaa304a 3c2de2b4 bd09b3a5 3d10148d bd018815 bbbd3c10 bcd893a0 3c8ace22 3be35680 bbceb8d0 3cbe638e 3d2c4e89 bd47d4f3 3cde91f2 3c8d234a 3cbcf1d2 bc3f5798 3c0f8bc8 bd19fda2 3cdabeb2 bd018de8 3d0781a7 bd4bf1fb bc29fd68 3d0e9895 bc97ab30 bd201712 3cbfb67e 3b02d720 bb6b02b0 bc63e1c8 3d12d3a3 3caa2706 3c2fcf6c bc3d05e0 bd40ecb8 3d35bfc9 3cd6d1c2 bd047ad6 bb573f30 3cd7da36 bc6e1538 3d4adb85 bc5fcf94 3d4cb425 3ca3967a bcc25903 3bca8798 bc074668 bd083e44 bb96b3c0 3aff1500 bcf44340 bc76242c bd20fe8b bc06d628 bd406ccf bd109055 bd100323 3b348080 bcc5e58d 3cd1a6ba bd47b0fb bd1a69ed bb8e6690 3b3854d0 bc893d46 bce7cd8d bd1bb2fd ba2b4d40 bd1482be bd2feb70 bce4779d bcfd504d 3c12e1ac 3d048e39 3c9f9962 3cb99446 3d3a41a7 bbf970d8 bc61a56c 3baf3958 3c586d24 bcd9acca 3b533480 bd0534e0 3cfe148a bd460218 3cb01382 3bfe3710 bc5d7b8c bcbbf310 3d14e3b9 3c68e2b4 bc351834 bc4408b8 b9f2e980 bc82dd50 bc05eae0 bcd2327d 3b1219e0 bd30f2d7 bc6b0cf8 bc0972d4 bcf8a9c0 3c53a7e4 3be129d0 3cd47afa bcf068ea 3c971332 3d252b91 bd48d21f 3b9ca2f0 3cd61806 3d08cc59 3cec13e2 3c219640 bcfc878d 3cf1d892 bd2549a0 bb846d28 3b84a358 3d2a3ef1 bca0c050 bcacd79d 3c876df2 bd10afc3 3ce00182 3d0287af bb16ad50 3ccd7b2a 3cf6b7d6 b9dc6a80 3d381d47 bd1d5ec8 3ce312e2 bc928806 bd1205ee 3adb2160 bd15ade0 3cdddec2 3c5f3794 3bbfa6b0 3aac76c0 bd065b0c 3d190203 bd106852 bcd41a80 3d25e68d bc8d4166 bc1ca440 bd38592f bd0f7cba bc208bd4 bd044df6 bb988318 3d449b4d bc045700 3c16ea48 3ca46f6e 3d33f7a1 bbaaf080 bd2f0285 bd334395 bd1e835a 3c82a122 3cfbba76 3cf5ef16 bc9ef8f7 bb246430 3c3b7d74 bc8f92d4 3ba5f5f0 3c4d15d4 bd1e9df0 3c9af2ae bbe83250 bc878656 bcd2fe8a bcfb80d0 bd28ef08 3cccc552 bb4a61a0 3d14e131 bd28fadb bd09914a 3c61be9c bd0055de 3d187f71 3d09c891 bd4a035b 3d0b5089 bcdda8fd 3d1a96cd 3c129fb8 3cb04ac2 3c047b48 3d229149 3b8ef818 bd20f1bd 3d4b4193 3bc5abf0 bc862ab6 3c34166c bd14c963 3c02edc0 3bc80b68 bc008e38 3d2c1253 bc74356c bb32c580 3c8deb92 3ce5103a bcae3ac7 3d2c6de9 3bab6370 bd374e38 3cabe666 bcfbb2f7 bac8a000 3cc0467e bc242098 3ae03240 3bb6a090 3d3d2d03 bcf41fe7 3bc356a8 bd02b225 3bac4718 bcdb4603 bc9df573 3d141681 3d256951 3d151589 bc5b46cc 3bee7118 bd23d528 3ce4b6e2 3d37017b bc8f4fe4 3b439a50 bab79aa0 bd4bfd5f bd06e84d bd26269d 3cd7ad76 bd012652 3c759dc4 bcb5d773 bcdabb87 bc8636ca 3b65e820 3d461131 bd2550a2 3d01052d 3d462825 bcca6c00 bd0e42c8 3c912a66 bd0960b2 bc841790 3c483500 bc901924 3d1af449 3d4bceb9 bc9d619d 3d40f66b 3be2c2f0 bce349b0 bd01f49e 3d3a0eab ba0dc800 bcf13e97 3bddf6d0 bc310258 bd14dfb3 bcb4d57a 3d21efc9 3c9cb04a 3d138869 bcea355d 3cf2d7c6 bd487a3b 3c7e7084 3d2019ef bb21b6a0 bcadc037 bb095d00 3cacb676 bc125560 bccc84dd 3cac3a7a 3d3de6d1 3d343f8d 3c5ee364 3b1820e0 bbd41ef0 3a35c080 bd4508c2 bca5a74d 3d0187b9 3c17f258 3c8f0ea6 3ce72ad2 bd25d93b bd2d8067 3c7bcc14 3bb33080 3d1e5b9b bd2cc1b0 3d097de3 3d480ea5 bc258054 3c9edfce bd33a3ff b94c9a00 bcd5acfd 3cb5c8f6 3cca843a bd2bbc83 3c81e292 ba17d080 bd4025b2 bd3d232b bb7fca20 3ba82ee8 3bb87fc0 bce06a77 bd054284 3d411b73 bd01bfce bcc5ca83 bd34c363 bc8400ac bcd03a0d 3d215e9d bcde1a6d bd31fa55 ba969b60 bd235223 3d254b71 bc321374 bd04afdc 3b64fc20 bb98fee8 3d368443 bd2f4595 3d0376ff bbda58f0 bd17c576 bd34d3db 3c362f0c 3c808c16 3d1c2e39 bd1f49c2 bcd8307d 3c5d1084 3cbb33d6 bc5aa24c bc465758 3cf06192 3d080999 bd3466a7 3c7dfdfc 3c5d34bc 3d14bcd1 3ba04ab0 bba992c0 3d01b651 bc92fa3c bccefe17 bcb33fa7 3cc928d6 3cb78392 bcc7b3a0 3d14cd3b 3c5bf044 bc32a1c0 3d135f19 bc83a366 bc240298 3c896ba6 bc28b3c8 3d2a02e1 3d1e458b bd34ed8d bcfd2ce3 3cbc9886 3be25f58 3cdff8c2 3c618824 bd1dbb8d bc286c74 bba0bcc0 bcc1c913 bc836b04 bc606800 3c948d3e bd408002 bd462c07 3d194dd9 bcbf306a 3cbb640e 3cc6b932 bcd764ca 3d2fb83b bcd9cb9a bb7ef920 3c584744 bc178808 3c7559c4 bca442e0 3b2e2c30 3c07e854 3bff0cf0 3aa98040 3c0fbc34 3d3cb363 3b2504e0 bd4c8557 3c1615ac 3c41174c bd17f47a 3d314f5d 3c992e7a 3cc2a8c2 3cb5b8d6 bc9e253d 3c55f404 bc9de8d3 3cbd643a 3b1d75e0 bd09f2fc 3c29abd8 bc9a4e40 bd2ad666 3be58970 3cd03302 bd3db550 bc404080 3d1f40d9 3c07ae2c 3b25f780 3caaba32 bd2454a3 bd22f585 3cac9172 bc4e20ac 3d2dd01b bc1c9654 bb4e7cb0 bce8bb3d 3b420880 bc317e88 bd2f3725 3c847e96 3d32b041 3d359d95 3cbfe28a bd4b8eaf 3cab5c4e bc4904c0 3c045628 3d2eb133 bb269730 bb2ffe50 bd134ed6 bd28db63 bcc32d90 bc6d0218 bc945af4 3c7172f4 bc4e2734 bd2b6758 3c8162ce bc501f0c 3baab940 3d10e13d bcb39653 3d01ff5b bc649c4c 3d436561 3c22b2ec bcb302aa bba812f0 bc3ef298 bc886a4c bd414e47 3d034119 bca780c0 bba4f000 3cfccf92 3d238fb1 bd3626f3 3d321189 3d1342a3 bd2acd93 bc22c2b4 3d02a1d5 bcf688b3 bc08f288 bc3e0f8c 3c383540 bd2e08a3 3c32d574 bd33b5c5 bb1e8eb0 3d456861 3c96d9be bacca740 3b9acdc0 bcb50ff0 3d33aff7 3d00d4b3 ba256140 3c1a3768 3d22a7b1 bd35f92a 3ce6c5ae 3c2f1de0 bd0a6caa bc6f660c bc947a20 bc8af2ba b9dff980 3cf97c82 3b0b8450 bc86da50 3d2c6f21 bd14021a 3c2c5f80 bd4c99ea 3cde5e06 3c921aa6 3a101680 3c79a50c 3b1e9900 3ba4e918 3d30c32d bd262696 3c2518d8 bbf0ef00 bcefe9c7 bca4d1ca bd419cfd 3c72e7ec 3c96bc6e 3c754054 3caf9f22 3c2d4968 3ca51b5e 3d4543a9 bc064594 bc668dac 3d224a27 3ccc78f6 bc3c19b8 bd15e6fb 3c81489e bd0c33d5 3d282e1b bc889850 3cba75aa 3ca757f2 bcacd4d3 bca29873 bc6d2b18 3c8c7d12 3caa9912 bd2a8ea5 bcb81e27 3d341a03 3ca8ac4e bb7450d0 bd0209a4 bc3a35c0 bbd26ad0 3ca51eb6 3b5e14e0 bcb49dfd bcc45e33 bbdbfa70 3d016bfb 3caa64a6 3c5e5fa4 3beecf28 bd2a50ca bccb74a3 bcc743b0 bd3616c2 3c635424 3c54a08c bd484853 3c53b454 bca2a133 bd0d794b bcdb3d8d bc8a6944 3d420519 bd3ae4cd b9a31500 bd27bc5d bc5ceae0 3cac7d2e 3d185d03 3ceed042 bd151ffa bb9effd0 3c377034 bcc6a473 3d34c5f9 3d3d31e5 bd0520d4 bb8e45a8 bb73d180 3cdd17ba bb9c6e98 3d4a0f19 bc392d8c bcee606d bd09ad9e 3d32b881 bbfbe040 3c3dcd20 bd0715c2 3d1a7357 3ccbf35a 3cd9d192 3c83255e bd1519bd bc8bf7c4 3c5e0d84 bd002ba5 bcde83b0 3cc4274e bcedb943 3d482671 bc2fc234 3c93b326 3bc7b968 bcfe693d 3c53606c bcf8fd3a bd3ed21f 3c1f80ac bcb96333 bcd09470 bcd25cf0 bd11e458 bb371880 3cc826a2 3c687294 3c67405c 3d4c166f 3b6452e0 bd287c2e 3d3692bd bd04f0a6 3ca3a5ea 3cfc013e 3d239df9 3cfda10e bd171fc2 bcc5664a 3ce69032 3d3eacf1 3c24a700 3c94bd32 bd14262a 3cf6b962 bcdbf11d 3d3c546f bd3f3628 bd15efbb 3c17ba14 b9ceb000 3c98f1fe bd28445b 3c598fd4 3d11da2f bce2485a bc39aab4 3d2c00af 3d23d4d9 3d389641 bb82f4d0 3d3f2bab 3c80e67a 3c2b85ec 3d37e235 3d4b1933 bc7b4488 bc652d68 bd196470 3d271eb7 bc9d0b97 bc646b74 bcbe8f77 bcd85efa bbed1f58 3d29376b bbed7dd8 bb9406e8 bce8ef6a bd10176d bc25df48 bd0cf5c8 3d47fb69 bcd6e3ad 3d04a8ab 3d05c8f9 3ae0ed40 3c341640 bba88bd8 bc8ca126 bbbb9010 3b335c60 bcb5f227 bd02a54a bd11ae75 3d260cb9 3cc4f952 3abb60a0 3bb160f0 bd1f093a bd41595b bd4b701d bb1408a0 3c1c25f8 bc9f35ba bce38420 bb83bb68 3b823740 bc182c98 bbf63e10 3d2f248b bca4c200 3d091b9f 3c911242 3c410c28 bbaec430 3c560254 3d2fc9cf bc421118 baf30aa0 3c347354 bd3b56ab 3c8fbc36 3c93f93a bd10b278 bd403943 bd093298 3d12ce31 3ce18ac2 bd053eb4 3d0971d9 bc2084f8 3ca9c276 bd2c18cd bcd9dbfd bcc5831d 3c800c9e 3c611024 bcb9a273 bd1435a8 bd493b12 bd435807 3d204fc9 bce6ba1a bd20ece3 bd1048e6 bc3c78c0 bce97add 3d0c77f9 bd095a1d 3c951462 3d412657 bd2c5b63 bd0f5e18 3cee9b16 bd10c54a bbfba298 bd0f28d2 bd246480 3d211d17 bd2da422 3b826fb0 3c8bb932 bd3e9aff 3b53cea0 baa032c0 bc6bff20 3d133161 3bf71a00 bc1baaf8 bababd40 bc29d578 bcbe1210 3d47bd93 3c1a2bc8 3d08c5e9 bc9a5d9d bd16f80a 3cb90906 399a7f00 3d4c622b bd3a7e77 3ca0638e 3d2a145f bd147ce5 bcc5f703 3d1486b1 bd21da0a 3d394601 bcae63a0 bd3078e3 3cf8c26e 3d077851 bc840e2a 3c56d7c4 3d477799 3b61b820 3c36a198 3cbd02f2 3b81b3b0 3c93633e bcd2d3a0 bd0236c2 bcfd76b7 3d06227b 3c6ec54c bc8c94a0 bc4d6bf8 3d41cdf5 3c1ffb4c bd182035 bc2f1718 bd24deed babb2840 bcbccab0 3c3c4ce0 3c56b37c bd2c7ffe 3cb44ca2 3d141dbd bb8bec50 bc96f4f6 3cab3f76 3d2ea451 bbd96328 3d277969 bb9d4c18 bcc80e87 3ced3d7e 3d0574ab bd2bf16a 3c315918 3cb95a56 3b43d460 bd07770d 3c2e3214 bcccc86a 3c77df04 bbc9cb40 bc23c1ec 39853d00 bb76f4e0 bd48ccd2 bc258fb8 bc9cd060 bce38b20 bcda2ff3 bbe2ad40 3bc04b50 bd0316f4 3d3e1621 bc594f14 bc10eeec bc323d58 3cb1b0f2 3c42abcc bd030dfe bc5b674c bd307e07 bd18fcba bd3950ea bc8b60b6 bc026f48 3d12100b bc165eec bc99f98a 3c962272 bd00f2f0 3bbb1780 bcaac0e3 bd3ce53b 3cbe07c2 bca2df83 bca1efa0 bbd02d70 3d133071 3bfce728 3cccbc2e 3cd1c822 3cd9d92a bc2f1978 bcdfb2fa bc876fcc bc403dac 3d261df5 3d2db89f 3c23828c 39561500 bcd66440 3c1d84c8 3a14d880 3c31cb08 3a579c00 3c1cc794 bcfe1bc0 bca9bccd bd2dae1b 3cb5faea 3d258479 3d365b2b bd010c58 3ce88f42 3d3e7bb9 bc3fffec bc9823c4 babcc660 3d0b3c55 3cbd53d2 bd175282 3b9d38e8 3cf8610a bd2aed7a bd42e9c0 3ce27dc2 bc9ac630 bb7262e0 bd314cca 3c0350a8 bd0c4c2d 3ce5f082 bcd2c4b7 bc2f7614 bd1a3eb6 bc103e98 bb5fdd50 bd393258 3cb985b2 bd2c8c26 bd31fd33 3c9a10f2 3badec80 3cb1c0fa 3d23e201 3d3cf127 bd1f0df8 bce2f543 3d2a13b7 3d1da669 bc1b8880 bd07d530 3afc3000 3bfe5c10 bce6d7ca bd48af75 3c996c3a 3cdd779e bd4b086a 3d13af85 bd1175d2 3d230d95 3d47370f bcf09a8a 3c6531fc 3d056421 3c0c8ad8 3cb8db42 3d45d6bb 3c07e708 3c7e51c4 3d0be4b1 3d4c58f1 3c958362 3c0f5634 3d3e3fbb bb845ca8 3d0f9281 3c50ba1c 3c889e52 3d04b8ab 3ceaec52 3cf348b6 3c024e6c 3d30633b 3d229beb bd12adb6 3bec6a80 3c7a385c 3c9cf20a bb24ddd0 bd3c0e63 bd3f0997 3ce9008e bd40b8d2 39d02800 bd4642f7 bc9122b0 baa9b7a0 bc7b666c 3d250031 3d45f66f 3d10da8b bd2e1015 3cb792fa bd2d8878 bd14f9c0 3d138799 bd1e9232 bc6c91c8 bd34f4a8 bd1989ed bc2607d8 bd02ac38 bd32f6f5 bc0e8934 bb61da60 3c89eca2 3cba890e bbc43918 3c3785ec 3c9fc7d2 bc48d1ac 3d28f08b bc6cd828 bd4838ff bb8bc8e8 bb8f1398 3c8e9632 bc00a82c bc509978 bc8c6744 3d2e2b77 bcbdce07 3cba8e16 3c1df318 3d2c9cab 3cde1fda bc06d2a8 3cb38966 bc631dcc 3c85e722 3c575f24 bd0f608e bccca643 3d1d82a7 bcfb75ba 3c33aaa0 3c1e9648 bd3f0b2a bc16fc34 3acbf540 bc88bc80 3b018fd0 3c60e77c 3d2bd4ef 3c74537c 3d1c4b93 bc886eb4 bd2255a0 3d13927d 3cbb09c6 bd46c67d 3c2ac280 3d3f1175 3c9fa612 3d4be929 3c6e4a84 bd03762a 3d159413 3d0fc04b bc87c8a4 3a338e80 bd02f6b8 bc454f08 bcfed03d bbbdf3d0 3c711464 bcf19f1d bcb9457d 3d1ba539 3c7ebd7c bce2f6a0 bcb3c153 bd34e283 3bcfb5e8 bc9e02fa bcbf96b3 bc914a0c bd411c9d 3cb35992 3d1fe281 3cd15fa2 bd0c2a0c 3c9e5b32 3cbb3a92 bcb2af50 3cb07eca 3c97a206 bc8e6edc 3d1da46d bd4b3ada 3ce83702 3bcaa058 bce26e07 bba12d80 bd36ca97 bcd100da 3c696444 3bb39da8 bd23cdba 3c00a080 bd12b26a 3c207338 bcd085e3 3d049b6f 3d08ca49 bcb88f77 3c304b0c 3c914a32 bcc60af3 baa6e160 bc512dcc bd3b15bf 3bcdf630 bcdbd19a bd2efca2 bd3ae562 bb9f71a8 ba7ea4c0 3cac61de bd0eb056 ba8acd40 3d3814b9 bd157ce5 bd06d854 bd15cb56 bd1fb845 3d0bd455 bd088ce0 3d108f79 bd068924 3d1e7e05 3d2cfc77 bd41156f 3d41c209 3c334154 bc1bb414 bd4c8817 bc89516c bc9b6fe3 bab88e60 bce2b370 bd0f5315 3c499a98 3d0ee051 bca4ab97 3d00b473 babfc560 bd149cf6 bd2ed458 bcf76283 bd3f0e38 3c977ed2 3cf5ee1e 3b97ff58 3ccf5276 3d16dc7f bd25a4ba 3c922b22 bcd6f89a 3bc0ea28 bc11cbc0 bd16b5cb 3b6c1a60 3c0ba10c 3c8cffd2 3caa4346 bd25a10a 3c2f80a0 3c9f4abe bcd59ff0 3ce6e846 3c995a9a 3d36262f bc4e2260 bd3c9343 3d2d3561 bcc4e5f3 3d0a67e9 bd36c1d5 bd45c478 3ca968ce bc059194 3d2e4e2d 3ccfd92e 3d2e45a1 3c9bbdc2 3ce5c692 bcc11547 bcfa3650 bd39c300 3d1ba5ff bd45d238 3c207d68 bce3671d 3d24df13 3c85de3a 3b95b010 3a320480 bd331512 bd261a1a 3c07e340 3c88db0e 3d3bd3a7 bd2bd90d 3c8a180a 3d239595 bd254eda bd0ae3ed 3d2c9ca5 3c7b6fbc bc815424 bb1521a0 bbaab140 3d403471 bc6c6e6c bd0a2a86 bd06a95e 3adee1c0 3d049f59 bd05586a bd15c700 bd239dd6 bba6ee50 bd0c144a bc95745c bc1a8a20 bce46867 3b3d67e0 3d21c3ad bbff7318 bd3ca07f 3c9be356 3c614114 bca12660 bd1953fd bd34a573 3c9e7322 3cdf2d06 bb4e10d0 bcf46af0 3d195065 bd267c26 3c9b012e bd20c38a bd3f1e5a bd3d1693 3cf3605e 3d4974a1 3c8b103a bd11faea bd303485 3d262393 bbe343f0 bd00fad2 bd05040c 3c1049ac bccae493 3d0bee9d 3c82288e 3cea04a2 3b7956e0 3c34f3a0 3cee8a8a 3ca95ef2 3c547214 3d1ae689 3d21707b bd17e330 bcd533d7 3cf90426 3d360b73 bc6f97b4 bc9016c6 3ca79b5e bcabc62d bd0135e2 3cdc4bea 3c657824 bc315140 3d27ad35 bd28391d 3ca1876e bc85cc7a bcf82c6a bb19c9d0 bd2bf1bd 3ccf49c2 bc5af678 bd35d4a3 bc4df3a0 bcc1a0a0 3c9077ee 3d2057af 3d417bd3 3d19bae7 bd3ed3b8 bcd150f7 bc96c8d0 bd1164ca 3c353474 3d0078eb 3c97a0be bc58a078 bc097a00 bc55d414 3d2b9d0b ba8008a0 bc06c2d4 bc339a6c bd3a6880 3d0f82c5 3c5c21dc bd0f1af0 3d192f7f bcd3b9a0 bc98757a bd06a4b6 bd3fce0f bd16b9cd 3b2dc500 3d375beb 3d3e8a39 3d281efb 3d2436db 3d1debb9 3c64fbcc 3cff2e96 3bea9010 bce32957 bd2040f2 bc6522a8 398be000 3d04baf5 bc74b048 3d1e39e1 3d3c7703 3d221619 3c4b326c bcfb2e87 3cff1836 3a2dce00 bd2b6645 3c007b60 3d3c66e5 bd26d212 bd1a3296 bc02a278 bca9b3d7 bce5b4f3 3d26f1cb 3d13efa1 bc9b0ca0 3ce16fc6 bd3248f0 bceb7d13 3cbc3b32 3bd62050 bcf814e3 bd4c620a bd158843 bd1fe19a bd19c295 3cb6c042 3c6926d4 bb370d50 3cc7bae2 3ce92f32 bcd94ad0 3bc373d0 3d31e899 3c809e2a 3d459b37 3d49d3e9 3c853e72 3d04bb25 3d1c043d 3be9ebb0 bba46ad0 3d20300b bce683a7 3bc79868 bd3155f0 3d02120b bc6f1e20 bb315bd0 3cf1f0c6 bc462e60 3c8fb4ee bd3ea5c5 3ab4bcc0 bd260e6d 3d1b6ec9 3c510044 3cb2d432 bcd12fd3 bcc02ec7 bcea249d bd33ec43 bb2001d0 bc2b3d40 bd385492 3d3d6997 3d41afa3 bcfbf0c3 3cfa86fa bc3a5e98 bbbb1f98 3c76bfa4 bd3b8acf bd2de02a 3d341b13 3c9a85c2 bd37e4fa bccd8ffa 3c607974 3c9b6342 bca7a22a 3d0550ef 3bc0e800 bd01eede 3bccf458 bcb00853 3cf11cb2 3d312aad 3cbbcf5e 3c942d26 bc0baf60 3d0e30af 3d2a6ab9 3c8ff0ba 3d0ff229 bcf0a583 3d3c05cf 3d161669 bcf3753d 3c91a53e 3cb702e2 bcaf483a bce56877 bca04fcd 3d385c09 bcf81577 3d002d45 3d032ef5 bca25b1a bd1c72db bc3e86f8 bb955258 bcec8a23 bd1b0780 bc68e4e0 bd04c036 3d2147af bca369cd bd3748ff 3c9de722 bd4b0a2a bb19a600 bc98e97c 3d2712fd bd22544e 3d15e7ef bae247c0 bca1dbad bd4114e3 bb1a92b0 3cfc193e 3d07823b 3c934756 3ccd31c6 bd264dab 3ccecbd6 3d1e7dd7 3cb64cc2 3ca43c7e bcd82853 bb336cd0 3caf9792 3d43abaf 3cb7f536 bc304254 bd1d3d9a bd48f61f 3d166505 bd07fd14 bcc0280d bd181718 bcd9f697 bcbe290d 3d0254b9 3c2f33c8 3d1e9429 bcee0b53 3d1c8df5 bcd00327 3ca42d92 b907b500 3d2054c1 bcd79b8d bca96097 3d38d7ad 3d0b2541 3d12ce1b bc0081b4 bcd9caa0 bc7fb228 bbb99e28 3d18b1f9 bc0b9234 3ca1fed6 bba4ed28 3caa29f2 bc8aa5ba 3c2c85e8 3cdd5b72 bd432888 bcd323ad 3d0e487b 3d1ff90f 3c0b8f4c bc4a8234 3d00c047 bd316cc0 bb2a9c80 3d28f6dd 3cba7a56 3d356739 3a9cada0 bc8c71ac bce76150 bc9a1803 3c5faa34 bd142c38 bd39b20d bc737728 3d31c501 bbf21d40 bd49aaf8 bb74c9a0 3d449425 bb609e20 bc2b5840 3ccc665e bcd6a69d 3ca22386 bd02bf5c 3cfeaeb2 3cab601a 3bbaa450 bcff9fba bc0c7448 3d1cb657 3bc26d40 bd321f6b bd4a06ad bbe40b68 bbfb7cd8 3ca0eaf2 bd04eb1a bcd34087 bc109ee0 bc32a76c 3d03eb7f bd3de42f bbf639b0 bd1a857b 3ac2c1c0 bc288d38 bc292fcc bc742aec 3cbc3f92 3c7ec4a4 3cf2e18e bc5e578c 3d2e1b59 bce46383 3c864996 bc3113c8 bbf4b6b0 3d0a4971 3cd5f282 bd1bec75 bd0ddabd 3d3edb11 3d2d6bc7 3d2c720b 3d3d4d97 bc238100 bd3c8e78 3d02fb27 bcc9a917 bb8cda10 bcef2b4a bca89a2a 3d444155 3ba89c28 3d0d33cf bc551d58 3ccdb7fa 3d2bc07d 3c1a0b68 bc348b74 bc6bb3f8 bd2373fe 3d03b319 3d21da4d 3b6942a0 3d20eb01 bce8b5a3 bb82ab58 3d053db9 bb9643d8 bcc57330 bcd941ed bb141fa0 3d0f92c1 bcd80a50 3cb7b3a6 bd152b9a bc81398a bc2cd28c bd07b7f4 bc472168 bc7b5288 3cf8ae92 3c65876c 3c93f366 3c34f948 bcecd9fa bcac5150 bcad3d9d bc9ae2c7 3991ec00 3d2ff721 ba183680 bd01af9a bce5c4da 3b98d280 bd248078 bcb1c150 bb52e5a0 bc467fec 3cda5d4a bd394cfb 3c7e328c bca04070 3c55c944 bc8ca2b6 bceaca93 3d013cc9 b86ca000 bcab606a bc8a497a 3d229501 3bc4e1e8 bd28c098 3d2d37df 3c9715ea bd028e1c bd3af0d8 3d411e75 3d330cdf bd0290dd bd22188d 3ceb1b82 bcf4834d bca8a853 bc99b2fd bb9570c0 bc991874 bce48ad3 3c88320e 3d11e1bd bd03e695 bc034108 bc4687c0 bc818f86 bca21610 bb6b1830 3cdca4ba bad67160 bc997890 3c4cd314 3d1835f7 3ca19726 bd402a62 3d36f841 bd22db3b 3c9e3fa2 3c68800c bc99c803 bd3d6653 bc85ab50 3d3c4253 3c669574 bce5d61a 3d1fc571 bd0b4ae6 3d0eb7cd bc719880 bc9e87d0 bd053a34 3cd46c72 bcad6f0d 3d423b95 3d0acde5 3c9ecdf2 3cdbe432 bd3cac6d 3d22c74d bceef73a 3d043bfb 3cf9593e 3c2e3af8 bb6471a0 3d236447 bd033116 bd260983 bd3c1070 3c9b1dfe bc06c0c0 bc4c0574 bbd7ad80 3ba7d4d8 3d06df4b ba925060 3c3119b4 bcef3030 bcebccc0 bd0ebabe 3cb8b0d6 bd23ca60 3bd78418 3c4c94a0 bd017d6d bcf3ebaa 3d0f8e59 3bd59b90 bce8cd8a bcf762b7 3d1d8219 bcebde70 3cdd74ba 3c077038 3cc81582 3d4aabe9 bc43c4f4 3c83948a 3bea1440 bc1366a8 3c77f00c 3d3b3a0f bd19e87d bcc871a7 3d053ba7 bcf9da3a 3cf7ca42 bcbab8f3 3cbabdf2 bb08d6e0 ba92f800 bd19524b 3c59c5a4 bd391942 3d47a225 bca9a980 3c916002 bd253d73 3bcab958 3ced4ea6 3d364a03 bd011616 bc20c72c bd2debbf 3ca09c8e bcfc96d7 bc8e10ba bd0e4e6d bd151ad6 bb9276a8 bcc5f397 3d415309 bcf3041d 3d2e0ea5 39c7a980 bd401c90 3cbf03ea 3d313f0d 3d0a68e3 3cf0af4a 3b945498 bc9d985a bcad5ff7 bc538fb4 bc8bb9a0 3bc311b0 39e8eb00 39b9d500 3b014400 3ce63742 3d1a8325 3d35bc29 38ddec00 bc3c40ec bccd2f60 bcc75660 bc3a6378 3d3cd5e9 bc43eec8 3c85e0ae bd2e3637 bce2e857 bd29328b bc92da0a 3d2e6061 3c8e2822 3d096695 bd2c3a76 bd1fc198 3a922100 bb1ccbd0 bc2d3e8c 3d3cd2bd bc8bb54c bc963bd0 bd0951a8 3d35bf4b bcab98ca bd36265d bd4c67c0 bc741020 bce38677 3c8c0e2a bd4b868d bcd59b7d 3d15c71f 3beb4a70 bcc92fd7 3a24a540 bd211325 3cd1e572 3b4ac6d0 bcc43ec0 3c829aca bd322d33 bcc20aa0 bbea5e10 3c780964 3cd06e06 3c3f2734 3d33dd71 3ccc21a2 bcf33c63 ba8ccd60 3bd40d50 bcec172a 3d0de42b 3c8b4c6e 3c9fcbea 3c521124 3cdd5d62 bc85e900 3ca3c6f2 bcc4d037 bcea3f2d 3cbc3e2a bc848a20 3ca6cf0e bd0167c8 3d050455 3c6acce4 bbe3b2d0 3cc216a2 3cb952ce 3c838972 3d203cc3 3cc64e4a bcdf47ed bc729898 bd28ca3b 3d0b2ab1 3b5776d0 bb595b30 3d12f2d5 3c309f58 3d01593b bba2a140 3d1fe291 3cf08ff2 bc77e5f8 bcc564dd 3bcb6200 3cb434de 3ba38310 bceb2593 bd09206c 3c4cda04 3bc9f290 3cb75bc2 bcfc471a 3c5da724 3ca50b3e bcaab8d7 bcd190e3 3d4504db 3c606d54 3ca7f6e2 bc90f046 3b28d5a0 bcc42e27 bd3a5d0a bd4ac43a 3c0d9a48 3caefd7a 3ce33bc2 3d1fd56f 3a1a1f80 3b40e280 3d1e7d0d bca7f383 3b470620 bc53b660 bcc2fe40 bb3947b0 3cdbf886 3c4b2020 bd156fea bd281545 3d13bf51 39db6000 bc341880 bd20375d 3bc31000 bc5984a8 3d4c4a7f 3d0f30f5 bd471f87 bd366e5a bce51d30 3d122cd3 3b581db0 bc4cfba8 bc83ac66 bd2cc16e bc7f7b54 38c86c00 bb388d30 3c157cd8 3bb1e840 390c6300 bc48ce60 bd1bf91a 3c595f8c 3a627780 3d01f553 3d1fa8b1 bc0a9220 bcbad1ba 3ca77a02 3d1cce5d 3c6aa0bc 3cfb2dce 3cc66bb6 bc065bc0 bd3e1c00 bd2ecc47 3b9fca70 3d29d82d 3c918d9a bd3d4b8a 3d37ec57 3ceac232 3ab50ca0 bc790148 3c73412c bd432102 3a4ba480 3d1ebf75 3d2bd38f 3baf1528 bcaa0f0a bd0bfe30 bca02ba0 bd16221e bc231b08 bd3b4deb 3bf6bf68 bc177408 3d24e339 bc1d5b74 bd39efdb 3d0c98d1 3d058c05 bd095230 3cedd8a2 bd2c8515 bd28410e bc50f8c8 bce3434d 3d01de03 bd26937d bd2f0fe3 3c21d628 bae19340 3d456909 3cc0800e bca8abc3 3d35b425 3be26268 bd44319d 3c8817ae 3d092d83 bc7fac2c 3d462ced 3cc4a7fa 3d1bf9f9 3c1a6db4 bd1ecba5 3c21fa98 3c5ee7cc bad43860 bc6a86e8 bc6f3fb4 3cd9e20e bcdb2cbd 3d0d9777 3c7374a4 3c15cdec bc88a97a bd2a1b12 bd0d545d bd3f928d bce702b7 bd34f7f7 3cb8dfe6 bd35350b bcf7ecd0 bd357c4d 3d141ccf 3c8cf8fa 3b77ec50 bc841744 baba1300 3d2d5f05 3c50c29c 3cd4fc42 3c074f40 bc842f00 bc44ca2c bcf06d07 3cec0f8a bd0fdb43 bc7288b8 bc8daa16 3cc56766 bb96f340 3d16f0e1 3d070ab3 3d1270e3 bc7c5e80 bd07d9d4 3c0186a0 3ca8a19e bce51c9d bd3586e0 3ca8dd62 3d1b1635 3bdf2570 3c60924c bc8735b0 bd4a2eaf bd0c7022 bd2d8418 bd490ebf bcf6f007 bd070f55 bac8acc0 3cbd455a 3c3e7900 3ce7608e 3ccb5a02 3b826558 3cdb440e 3ccdff02 bd4b3900 3d114b0f 3cc10b62 3b63aa20 bcf09a57 bcbb2483 3c850572 bcb8c51d bcdefa10 bd2445de 3c8cd3d6 3be5a358 3d1ba881 3b040750 3d08f091 3cf89a02 bd385ee0 3ccbb27a bcc7ddc0 3d02e4b5 bc929c20 b9179d00 3d480a11 bd2cea40 3ca9c772 3d45bd31 bd17b860 3c22a6d4 bc83496c 3cb6375e bce62670 3cbacca6 3c939142 3c88d7c2 3d2a395b bd0a4fa5 3d4736cf 3d488813 3d406acf bca1222a 3d13c0e7 3c80436e 3d4c70a7 3c504694 bd379208 bb7f8ea0 3c8ae852 3ca0453a bd2ba8aa bcf51940 3c9fa40a bc8a5ba4 3d1cd381 3d0c4589 3d33c189 bd46ded2 3bde9228 bd2efa4d bce32bc3 bd00b106 3d2cce3d bc091d4c bc5c5d14 bcc9a9a3 bd389602 3c922756 3a645f80 bd434985 bc9b0c8a 3c651fa4 bc663ea8 3d0b61eb 3d349c29 3d400fb3 bd331ebf bd015675 3d03eac9 bb9aea50 bd23bead bbdee6c0 bc8b7316 bd0a3486 3ce4563e bcf317a3 ba2adc80 baf286c0 bc9ab603 3bec45c0 3d308eb9 3cbd7406 bcf50657 3c92d236 3be0dcc0 bc7c194c bbf2fc80 bd455678 bcc20410 bd0b0df5 3ce2f3a2 3c851b9a bd355bfb bce99d27 bc845fea 3b7a56d0 bcaf6560 bbaf5610 bce9a253 bd0cbbbe bcd7361a bc81b6d0 bbe95a30 3c761f84 bcf3abd0 3d35027d 3ccea496 3d4066df 3d040afd bd033f7a 3c55a0c4 3d0223f7 3d259f8f 3c7b780c bd423e5b 3d1061b9 3d33c911 3cdc6392 bcd11e5d 3c2e7c40 bcbe5fca 3cb62356 bced76f3 bc491008 bc51d2c8 3c5520d4 3cbcb582 bc868334 3cb46182 bcc1ca1d ba079200 bd208362 3c986752 3d25a8fb bd246e70 3c97d0b2 3d33cb17 bc765028 379fc000 bc43c9f4 bd350a5a 3c910772 bd156aad 3cc3143e 3c77daac 3d4a0225 3d2674c3 bb2656d0 bb6104a0 bcdb1afa bb3193a0 3d40c261 bc2123a0 bd1a97fe 3c5c8d64 3cccf716 bd18ad16 3ce0c1fe bd10d6aa 3cee37c6 3d2cce6f bd06b34e bd385fe2 bc259578 bcffd277 3ce053a6 bc916960 3d0962d7 3d4bd81d bb710a20 bd233c9d 3c9f7326 3d1177a7 3d2ce2b1 bd32f54b bd213a0d bce3271d bc29a3ec 3c7fb004 3d4ab201 bc08c9b8 bd2bdfea bbd6bd90 bd49e775 3cff1776 bd3794f3 bd23de96 bd29c6e5 3d264f6d bcda25f7 3c0a4974 bcaa0b43 37af6800 bb2550d0 3bbbd180 3c7e250c 3bc2afd0 bd42eea8 bc4e736c 3ca0240e 3cb6f136 bcbba7e3 bd274188 bb70c0b0 3cdb6066 3c81c8ae 3d30b3b9 bc019808 bd451ded 3ced3202 3bb4d250 bd474905 3d2fdd1f 3b1c9160 bd248f42 bb097d80 bc85bdc0 bd082ade 3d1a17d7 3ca47822 bcaa1680 bd0b7038 bbc48890 bcb32393 bd0bef32 bd3c6e20 bd48a047 bcd7aef0 3cf03df2 3cc59126 bb5cdea0 bb6af160 3d28ca71 3c24200c bcfa54e7 3cb35e4e 3c890c92 3d13e873 3c0fa308 3cc598be 3c521084 3c57bb54 bcaa3313 3d33ae6d 3b49f020 3ac52ec0 3d1e2547 bc4fd334 3c2cd5cc 3ca8ee22 3accbba0 3c6cde44 bbad98f0 3cf81342 bcf6e150 3d37d765 3d0c7ec9 3d371a91 bc4d7668 bca305cd 3ab12b40 3bd32d10 3cf4b5f6 bce5e970 bb6fd980 3d2c65d1 bc38fde8 3d0998e5 bd3dee48 3c86a802 bd32dc4d 3d09cd71 3cddf9a2 3d221b2d bb112120 bd456620 3cd1348a bc0e510c bc10b078 3bde9670 3cd414b6 bc8f79e0 bcd5aa1a 3b996570 3c410608 3d282137 3cd5150e bc1b4eac bd10b122 bc5dc86c 3d478983 bd34f213 bc339388 bcb6e830 3b223d80 3c417f08 3bc4e540 3bac9698 bd192186 3c0c3bb8 3c286174 3d31d84b bd271b58 bae958c0 3cf24072 bd2899f2 bd3df147 bd0a27ba 3c87a7de 3d2054a9 3cfbff22 bcfb97ed 3d325409 bd1f0750 bcbb2777 bd38f87d bcc7b43a bb1d7b50 bd1e6385 bd309072 3ce18fa2 3d02eae7 3d170539 bbe12050 3c43c3cc bba2b2a8 bc4a6df4 3c522e24 3d1583d9 3c5039dc 3d378639 bcddbf7a 3cf71cbe bc22e0ec 3c6a4fb4 bb592000 bc78a800 3c1292b8 bba32890 bcc4abd7 3ce199da 3d41f121 3cbd1b7e bc3e8e98 3d19c7f5 bcd9ab30 bc6f2b20 3cbfc70a 3cfc8232 bbab2618 3c16576c 3cd0d976 baff4540 3ad42540 bcbd1460 bc047568 3d30d6ab bc5cbd54 3d375b81 3b7dfce0 3ccd821e 3cbdea2a bd0f8e66 3d474b7d 3d472717 3d22cc81 bce24503 bcb1425d bd44b99d 3d089625 3d166209 bbf296a8 bd28ba9b 3d23be9f bd486540 bc86074c bc96a206 3d3b5a73 3c8890e6 3ce71cf6 bcdde243 3be394c0 3b2d2800 3bc9ad18 3c3ab06c 3cc6974a bd25e6d2 bd1bde2a bc5866a8 bc899f86 39555800 bd3f477b 3d28f1ed bc3f4014 3c9ede66 bd411bef bae587c0 3d34a809 3d1a3ce1 bb5f1420 bd00829c 3d0a92ff 3d0c3e45 bc7cde60 3d449e6b 3cd62792 3d248a3f bd0d22eb bd2c6195 3cc9bf86 bc1c88c8 3ce34c3e bd36c997 bd173670 bcf430b3 bd1017d2 3d1ce907 3d03fd23 bb920a98 3c77f974 3b7eab00 3d08f42f 3a670f40 bd457e63 3bc12e18 bccdbd1a bc173560 bc52c3e8 3bda5310 3bb4a510 bc1d726c bbee56d0 bd103e88 bd3f7ed2 3cada322 3b982b10 3bdc9810 bce0549d bc7a9814 3b0442d0 3add0260 3a8da5c0 bb0cc360 3d4c7241 3becbcc0 3c208cc8 3d265b4d 3d2d9eb1 3d273bf3 bd0b69fd 3d00f197 3d166c51 bc4a78e0 3c9ed532 bd200f23 bc1cf28c 3c4cff74 3bf2f7d8 3ceba076 bcf33193 bcb061c3 3c892d5e bd43a75b bcceb8e0 3d252bb1 3d491091 3bb28a10 3b5948d0 3d2add2b 3ca00c22 bc3085f8 3c3529e0 3c3d7300 bbf5ad58 3b073800 bcf3d470 3bbdc500 bc0b7bcc bd03fb24 b6fd6000 b9c47500 3af50ac0 3c904886 bc73aea0 bab2ef40 3caab152 3d1716f1 3ca0c88e 3d202ad1 bcdd2dd0 bcfba0a0 bcf3d4ad 3cf638ba bc15b74c 3d38fe8b bcb99f30 bce36527 bd4920eb bc923226 bc75e1f8 3d3915c9 bcc317a0 3ca17d32 3d3f5275 3c8a4956 bafa17a0 bc2b0c54 3cf07dca 3ae7b7c0 3ca2acba 3d2d3b23 3d362279 bbd36ed8 3d3e66cb 3d4098a9 bc305678 3c372d38 bd35644f bcf4747d 3b079ba0 bd16bdaa 3c9d3482 3c4969e0 3c644f04 3b1322b0 3d34621b bc9be0ca 3d410937 3c198d0c bcbd7253 baf8e200 bd1e0c0a bba71370 bc33b7d8 bcc81f17 3ca72cae 3d1016b9 3d4b0499 3c698994 3c49830c bc033e18 bcfaad00 3c1963c8 3c849052 bb7923e0 bc3e4120 bcf0ca1a bc8000a0 3b0a1850 bca77b30 bcfc8323 3ca22212 3ca1ace2 bd24c565 3cedff5a bd1d9b46 bcb8a68d 3d1d743f bc463f68 bd14e3b5 bc8785ba 3d3d943f bd137bcd bd0e292e bcf76320 3d114521 3cc138ae bd200970 37f1b000 3c0cbf8c 3c3ca220 3bc1e6c0 3d1393a3 3cbed742 bb978490 3caea836 3c90ed52 3bbc63d0 3d4790e9 bc9a1bc3 3cfb091e bd3f6ec5 bcdd43e0 3d17ac2f bca2cc4a 3cfc96ea 3cf19c02 3d2b65c9 3cf952be bc280a18 39858300 3aa1aa40 3b67c550 3d33bcab bca93847 3d4827c5 3d4b9293 3c34bd34 bd0d83eb 3ced26a2 bb18ea20 3d0642ad bc0a3638 3d2353a9 3cf3373a bcb4b4ad 3d264289 bcbf7393 bd06b172 bd45089d 3bbb03a8 bd3a6415 3d1bceed bc14938c 3d20db8d 3d238941 bc61ad54 bcaea80d bd0de96e bb1fbe00 bd4629ea 3cb9ac2a bc62da08 3cf9eb16 3ca01bf2 bd00bad5 3d240ccd 3d018efb bd1ff40b bc853140 3d0e6541 bd0a3454 bd1e136a bbf00070 3d239765 3cde3212 bd11685e 3c8d7a82 bc24edb4 bba0e190 bb26e2b0 bccdbd8d 3ca63222 bd119840 bca7ceb3 bd1420f2 3c98efde 3cb420f2 3d2cc8e9 bce8a747 3d39044b 3c40f26c bd321848 3cf60b12 bc9eb6b0 3ae19560 bca74663 bc92eb66 3cf9c616 3bd3f0f0 3d1598b5 bd3c55c5 3bb95db0 3d0be929 3c85ccee bb7275a0 3ca2cb8e 3d012887 bd44eb13 bcfe484d bc61f36c bd30250d bd2ed0d0 3d35bd51 3be1f750 3b971d80 3d14de49 3ca563fa 3d18bfa1 3d17f909 3cfdc632 3b7c0db0 3d3102fd 3d213d59 3d182b37 3cde8312 bd02028e bd1343a2 bd4c833f 3c123e88 bd26baea bb9e0940 3cb0bbfa 3d0b8bf1 3ccf3a3a 3cd455e2 3ce528da 3ce777d2 3c920ae2 bc56d7f4 3d17534d 3c74ae2c 3c80da52 bd1b2e83 3c8b2db2 bd30025a bbd82c98 3cd2a88e 3d281a0f 3ca8a006 3d1e8aa9 3cbcbdea 3ca241c2 bc959e74 3bf3ad30 bc558178 3cb998be bc8ddaec 3cc09152 3d29d485 bcdfcdda 3c9bf0d2 bd293152 bcbf2ae3 3d06adb9 bd25caa6 bd0fb6c5 bcdf2f07 3cff8da6 39a8bb00 3bf49cf0 3c4fe4b4 3c914ab6 bcb0ff2a 3cd59bba bbd61dc0 bd3855f2 bd363d85 bd3705cb 3d32cc55 3cbf2c3e 3d292969 bd3b969a 3a117f80 3cd929c6 3cc48712 3d02cd5f 3cdde28e 3cda4782 3a8f02c0 bcfade6d bd31936d bd43f75d 3cfca362 bc9f660a 3ccde832 bd4a28ba 3d2575a3 3c62c2ec bba489d8 bbfa93d8 bc2a56e0 bca8f9bd bd31b2eb 3c322d48 bd16474d bc9e9633 bb5012e0 bc223d2c bb949950 3cf8973a 3c36dce8 bcb6653d 3d2fcd89 3d032317 3d3179c5 bd0186d5 bd1e13b2 bd29192b baabb4c0 3c45dff4 3cb47de2 bc1f53e8 3cde1156 3cd03f72 bc10bf8c 3c8f5aa2 3c2b518c 3b585b60 3d1cc2eb bd206dab 3d3d3a9b 3c6f70d4 bd077a44 3d2ab53f bd0ca9a8 3d17b323 bce59587 bc70d980 bc138208 3cd56e92 3c99d082 bcd67bda 3cac5f76 bca3aae3 39fa6280 3be908c0 3d0b54a1 bc786c78 3c477138 3d47daa3 bcd98cfa bcc59fa7 3d4a5b03 3cec2956 bd0191cd 3c7eb95c bcab311a bccf8ec0 bcd2ef3a 3be34da8 3d281bc5 3b94e628 bb35cd60 3cc3a72a bc15f2cc 3d03873d 3cb967ba bd14fd36 3b363a60 3d259683 bcaad640 bbbb12d8 bd4a0f8b bcaac903 bbd7c298 39e50d80 bcf422ea bc16ca60 3d48da11 bd34cb9f 3cf1e78e bc8f6b9c bd0629ee 39413b00 3cbbbd02 bc8e2dec 3cdfabd2 bc94224a 3d223c03 3c860952 bcdbc400 bceed18d bd148dda 3c9baa06 bcc576e3 bd0f47a2 3d4824c5 bd1a94c8 3d35473f 3d296f01 bd10c55a 3ba61980 3d435279 bc93064a bc90995a 3b654760 bd1b0378 bd172ee8 3cffe232 bcba1ddd 3d3bebcd 3c3f4ab4 3c0f1258 bd022acd 3cf0844e 3aaf8dc0 3caea10a 3bf312e8 bd41aca3 bc6c7560 3c20018c bbab9ad8 3aca07a0 bd26454a bc620b48 3d0b206b baecaec0 ba4c6780 3bf90950 bc57bfa0 bcea22a7 3cd94e9a bd25a845 bc19ee00 3cb3a66e 3d356629 3bf9dda8 bd0b7134 bcd26080 bc3370f8 bc9304e4 3d43a633 3ca767d6 bc88734c bce2479d 3d0c3c75 3d0e2ef1 bcaff123 bd47d49d 3d29986d bd03a0ce 3cfe46e6 bc9eba9a 3d42b223 3d0fe529 3b4b3b50 3b18bdb0 3cf20aae 3bc09498 3d481dd7 bcad9293 3bf5ca90 3c728944 3c6fb90c 3c83211a bcedabbd bbe3fd40 bd067f08 bc597440 3d1e2b03 3c9d0cfa bbe6d340 bcff25b7 3c37e3c8 3d23a8f9 3cbbbe42 bd1cd75a bd0155b8 3d3bd46b bb9c4768 3d370a93 3d47ca5d bce1f477 3ca0a7f2 3cf4215a bba9b100 3c9a8e9e 3d49c8c3 bab3bc60 3c055aa8 3cf8f8c2 3caca956 3bce1d28 3bb425a8 3c8aafea 3cf4b9d2 3d2ca55d bcdc7c70 bcb6beb3 bd1fd5a2 bbdeaf68 bae77860 bbbfe5c0 3c1f1054 bc9fa23d bc8a7310 bcb950bd 3b8885d0 bd0b81ca bc8bcc3c bd42c573 bc996a66 bcfb9d23 3c1214a8 bb581580 bd47f8f0 3d29c027 bc1f5df8 bc89e87a ba9340c0 bcf33570 3d385adf 3d034b95 3d0bf137 bd005808 bce2aaca 3c67136c bd1949cb bccb8d07 39639b00 bab44240 3c831c0a bbf5bb28 bcc2ced3 3ca63d52 3cdb68fa bc826496 3c058c68 3ca299c2 bcffe010 bc2efd28 bbe67630 bd3de6e7 bd3ce68b 3d380d6d 3c1adbac bd0166f2 bc1ce778 3a924ea0 bcc6287a bb7ef250 bd3ef73d bd16f3bd 3cc99b12 bd0365d4 3d394c09 bc9820fc 3c4ab0c0 3d063931 bca2cd5d 3c99f13a bc25a698 3d09a7fd 3c12c7a0 bc560fc0 3c93df26 bd415bf3 3d4009e1 bd111c86 bcfdc237 bd03e0ca bc2475f8 3c297b00 3cf5296e bc4be6f4 bc686dc8 3cf482e6 bd172b35 bd17292e bc79d8b8 3d3c292d 3c17b858 bc4b7594 bd19b333 bd2b2f85 bc40e994 3d32ccf9 bce6ef9d 3cd21566 3ab14c40 3d0ff341 3d07d093 bd3e6ce2 bcb51527 bc87c410 3d032311 3ceab76e bc711f6c bd447cb2 3c5d0104 bd0b0922 bd4bd38b 3d15a7f5 3d327917 3d4bb1d3 3d31ee09 bd00ba7e bd24742d 39c8ff00 bc6fbeac bd294efe 3c11118c 3d1f84e5 bcf4170a bc138648 3d2d704d bd1df532 3ccf6196 bd3be4c8 bca59937 bd21562e bd1bfb00 bce6c9ed 3d17558f 3d3a9d77 bc67fb6c bc6e540c bb4931e0 bcf8598d b89c7c00 3bc1bfe8 bc8241d0 bcd61913 3ccd16a6 bd328787 3b8b3d40 bd4ab0e3 3d3403a9 3b960218 3d225f2b 3c704c44 3b8a71a8 bd412a12 bd2d0fe5 bc571094 3c7052ac 394f1e00 39c3e280 bd1ce286 ba849000 3c65d764 ba363b40 bd472c9d 3ca7cb62 3b83db68 3d1f5b79 3cd3f042 3bd010a8 3ca14902 3c809f62 bc61f5a8 3d2fb807 bd27ca3d 3d34ef7d bb887ed0 3d0160c1 3c66fd04 bc9cbf3d bd345cb2 bca4282a bc1bd174 3c7a1a14 bcd656da bd39ae7d bcaca647 bcdd1dca bc7b1588 3c2112a0 bc58bb6c 3d3c7a81 bcc43faa bd3d31d2 bc0b0b78 bc0e54f8 bd018e72 3d10fa1b bab802c0 3c3cab00 bc7a6b00 bca3feed 3bd19940 bc1c80cc bd034904 bc9869d0 3d2380b7 bcce911a bb991910 bd2eb263 3cad9fa2 bc137dcc bcf2479d 39fcb500 bc0c9d58 bd0c7c3c 3babbf70 bd2f5155 3d1c7fa9 bce27fdd badde300 bc95238a bd050516 383ff800 bc813180 bcf5d827 3d27416b bd30a5d7 bcf556f0 bd442643 3a53d880 3c66aa84 bd17ab15 3cf50252 3c13308c 3d1b6761 bd418f1b 3c79de24 3d0b97ad bbfa7300 3c8a3cc6 bc639b2c 3cc9c4f2 bbddc4d0 bc0e7f80 bd3eaafa 3d21e197 3b5ef560 3d109251 bbc92040 3ba50128 3ccad302 3acb54c0 bcb9ca40 bd390ad3 3c136418 3d17d2b9 3d465839 bd3fa9df bd448ac7 bbc5cf18 3c6b53a4 bd46ecfb bd0c839a bc9996e4 bd0ffed8 bd3d59cd bc9b4987 bd382c75 bcf367c0 bd34953b bc4bd134 bb24c160 3d30e0e3 3d04c00f 398f2000 bce248da bc4b0d60 3d2faec9 3c9652da 3cde5bea 3d3e8fbd bc59c4e8 bd05fe6d 3c5fc8d4 3c778fac 3cc978aa 3caf4f02 bcdebb27 bce9ec4d bd1f7f5a bbb82e68 3cd50a66 bc9503ec bd158daa bb33d950 bd4967ed bce78df3 bd163dcd bcf9b3ad 3c559d54 3c67a08c 3d36cbfd bc70bb0c bd21e028 3d08cc89 bc1624ac bd251cab bd0e4380 3b83a330 bc7215f8 bd30acfd bc8ac020 bcafb21d 3caeccae 3bb39768 bd0e7b46 bd0455c0 3b274000 badc4ba0 3cc4a022 3cf1b972 3cb3a58e bc8c356a bc31c22c bcb96b43 3d256f41 3c83ec6a 3ccd73ce 3d365f71 bd444098 3bd411f0 3b628860 bb648fe0 bcc15457 3c81f3ce bcd7e403 3d48f375 bac29d00 3c3bba4c 3d22a50d 3c16e0ac 3ceeb2f6 bc685ea8 3cf5adda 3b4232d0 3d295347 bd2dc253 b9879400 3d012771 3cae16be 3cf21cde 3c1c80c0 3d209e09 3d206429 bd1f86d2 3c2e16d8 bcbba7e3 3cc8da52 bcf78cad bd2f21ab bbce6800 bc1d958c bced8aad 3c3e8974 3b8a2580 3d1a08df bd0311bc bc806494 3c2a0338 3a24d980 3d175191 3c92dbb6 392f3600 bd1ef402 bce36c13 3cf79212 bd1c20d5 bd0fc97a bd02ac82 3cfe6f12 bcbbf8c7 3c78984c bc3a7a98 3bea43f0 bd2ab260 bc73c678 bd4443d0 bd0c9ba4 3d1df581 bccd6353 3d093a6b 3d215ee7 bbd49ac0 bd24ad56 bbdd4328 bce218f7 bd1062da 3ce4eef6 bd165d8e bca114ad 3be6a7c0 bbe16510 3d2b0885 bc4f9800 3cfcaf02 3d2a376d bd3b99e5 bcb81a8a bd21fcbb 3d3e0079 bcae8b87 bc501dd8 3cd7b1ae 3cf87ebe bd03b7a2 bbb3cc40 bc733e94 bc036bc8 bd404c82 3ca10d42 bd08f816 3b74bbb0 bd1a8330 bd2c0c6e 3cefb1d6 3d210089 bcef1f27 bd0b66f4 bd222d1e 3d3a6103 3cc244f2 bd219570 3c84a4be bd2deaa8 3d032df3 bc64c4c0 3c740fa4 bcfffa8d 3bbd4830 3d464187 bcf4d147 bce23e43 bc89e0b6 bcca1183 bbcfeb98 3b9ea540 bd3a5bfd bc9aa7d0 3d12e065 bcf24790 3c334cd4 3cabcec2 3c3d0d20 3d2ebe99 3d240c21 3acd79c0 bd3897af bc1726e0 bd2fa6e3 bd176a13 bbafc5e8 3c45f140 bd3c72b3 bc22a680 3c78d894 39d9c180 3c65420c bcf4443d bd2d351a bd17327b 3d0c4c65 bc8c8dc4 bc691328 3b320aa0 3caefb3a bd13375b 3d29b8b7 bc0610c8 bd00f5ea bc845ea4 3d060839 bc1c51e0 bc64526c bd2d21b0 bd1e7b28 3c06fa8c 3c6dc0cc bc850dfa 3d12b40f 3b70de30 bd176b40 3cf3c5fe bcdd0227 bd34042b bc9b026d bc5c2228 bd3f6d8d 3d1593ff 3cb9e42e 3cd2e25a bce8f0fa bc83d586 bc9ba6da bc9f30d3 bd1d76b6 ba5644c0 bb4eb7e0 3d324f17 bd443898 3d256bff bb5f43e0 3d41b1e7 3cfddf72 3ce16d0a bcf03e33 3d27ec85 3c9a633e 39c2a500 3d1b0ebf bd47cd30 3c802bde 3cefcc1a bd419ab3 bcb681ca bba46eb0 3ca8fd7a 3bbf4ab0 bd1e3e9b 3d47a081 3ca1cc26 bc5f2780 bc56826c 3cec1d82 bced8a13 bd22675d 3cf57112 bc12024c 3c9af62a bcb37fc7 3b3a84d0 3d04c0e5 3d33cb81 3d1fd89d bc85de60 bbf88e90 bb37e230 bd03e9a2 bd1f1095 3c7195f4 3c8fb8d6 3d03ad2b bccb81bd bd03ee9c bcbf8aa7 bd017584 3b2d43e0 3c4e6744 bceb420a bc39738c bb68eae0 bb20dc30 3cce2106 3cc53bea 3d4aca6f bca252f7 3d47bbed bd29fe38 3ad36bc0 bd3c0f30 bcc663f7 bd0d1738 3cf4bad2 3c8cfd96 bd047224 3d481bb5 3d0844cf 3c12abb8 3d3c88ef bd1ac66a bcef4b8a bd2f33a8 3d40b423 bcc648c7 bc9d975a bd376ab5 3c2212b8 3d19b781 3cb7c0d2 bcfdbdca bc818590 3d3252d1 3d2c747b bbf14e80 b9f2a400 3d3131d5 3c266614 bd34cc50 3d1c2b93 bd08e740 3af0c960 bd0b5594 3aac1260 3d32b7a5 3c8a4322 bd0757b5 3b999fd0 3cc74062 3b5bf660 bba39cb0 3d39514f 3d009c01 3d201a9d 3d46c6df bd1132f5 bbf993e8 bd3398c0 bd46c5d7 3cbb7c32 bb802d10 3cd39f86 3cf9c86a 3cbc0512 3bb4b130 bd07beac 3ce4e1a2 bd4a1553 3d409fcb bd248cb3 bb854898 3d1776e5 bd1645e8 3b0b1aa0 bc2ba354 3b747180 bd393087 3c44b72c 3ce63ee2 bcb07947 3bd3a4f0 3bfc7900 bcb8c8e0 3c19b3b4 bbaf2ee8 3d232a43 bbe42fd0 3bf19cd0 bd344810 3cc0d04e 39943680 3d2dab45 3c6071c4 3d141ac5 bcdf47da 3d29379d bcf0a720 3c264b2c bd37dfda bcd36f3a 3a870da0 3d380a1f 3d387eff 3d297537 bd44d397 bace0da0 bcadefba bc821e9c 3ca53522 bb7edc50 bb1ec0b0 3d09a94f 3d199345 bd3b4488 3d41757b bc787180 bccd4ded 3c3dc768 3cf0bcf2 bc88756a bcc50ca3 bc9da12a 3ca204e2 3d12aabb 3d2583af bc5ab728 bb9a3468 bd0d94f0 bb7e5720 3c7437dc bc891176 3d1911f5 3d26f739 3d0bb5f1 3c7b5e2c bd2e8a42 3c5ce85c bd1ab1bd 3c2bdc98 bd0a3056 3ce0951e bc8e4910 3c472d00 bd479c1b bd000e35 3cba134a bcb46aa0 bcd822a0 bc44570c bd43d1dd bd3070b2 bcdde7fd 3c68a314 bcc892aa 3d4c72f5 bd1c9a13 bd0e6936 bca02433 3c9bd442 bc9995d4 bc6a3aa0 3b7db2e0 3cd5127a 3c80c0fa 3c911cae baa6c760 3ce2e612 3d409911 3d3d5fcd 3c8bbe32 bce4a45d bcc33900 bd27bd4b 3cb52bb2 3cea1c36 3b293150 3cf9d3ca 3b0246e0 bca31f43 3cc506d2 3d186195 3cdf9e92 3b4a2300 bbca1730 3d26d255 3cd60b4a 3c15eb98 3d327b5b bd4092da 3c9f43d6 bd431805 bd047610 bcd0b457 3ce6ca3e bce07bbd 3c34c988 bd468023 3b60aca0 bbbc82c0 bca48c07 bc0379c8 3d028371 bd32650f bc87c6f0 3d29b551 3c4afbd8 bcb5ebb7 3c982326 bce4290a bd3a6188 bc7028d4 3d0e9219 3cb52c66 3cc016ba 3b5e25e0 3cb0785a bd49f420 3b87ae98 3c98ba9a 3d119f29 3b859930 3c148f98 bcb29bed 3c78cf04 3d1d5f45 3d403343 bcc5964a 3c996036 3c4d5904 bcc695b0 bcc7c880 bb710260 bcdb6637 3cab30b6 bd111eab 3d11132d bcee2b47 3c8baeaa bd47f578 bd14aa12 b90b5300 bc5174ac 3d4184d7 3be16fd8 3c55571c 3c2b228c 3c9577aa 3c971bae 3cff9ea2 3be41590 3d479fb7 bce559f7 3d26ea17 bd1892fb bd2024e0 bcf1d943 bc194398 3d28b873 bd137425 bd2c66fa 3a5038c0 bc55ba34 3d462fa1 3d08ad07 bcc4b8ad 3c3dd4d4 bd022a65 3c9abf56 3bc4c390 bc9660a0 3c813b72 3cbd0e02 3cd8f0d6 bab29000 bd49ebe5 3d18f817 3ce1cd86 3ceb8e2a 3ccf8012 3d498e11 3cdfef36 bd3925cd 3be5f0f0 bc95af36 3d4262b7 bcdcdf23 bce44cda bcbbfc30 bcae96d0 3d295f87 3d37e3d9 bc34354c 3bf5f650 3cb4904a 3cd45d56 3c8a735e bbe92668 bd06b9f5 3d38f0c9 3cd9ec92 3d103d51 3cbe8cd2 3d1fd133 3d3ee72f 3cfaf0d2 3bdf88d8 bcbc344d bb96c418 bcbfb1ed 3c78c09c bd3d93af bcf01027 3c305e2c bd10d02b bc0d8980 bd15a6a2 bb5381d0 3c81b352 bd4918f7 bcca8a6a bc8cfa16 bd063652 3c084260 bd27c753 3d21e449 bd3b192d bab6c040 3d34ec21 bbe73510 3d09cc49 3ba8eee8 bcf440a7 bc1cdfcc bbb771c0 bba02710 3cbea65e 3d3a165d 3cbf883e 3c801702 3b0eb280 bc267e68 3d2b738d 3d07c2d3 3c9f386e 3d2ecf81 bc9056d0 3b20aa50 bd0aedba bd0c4aa8 3c5bbf5c 3d2f0661 bd0ae5b4 bce9175a 3d208257 bc79ccc0 3cfa6c02 bc8ed404 3ad97960 3cc6ff7e 3d17af7d bc52a788 3c2e8288 bd39b5f8 3cfd73fa 3d31d59b bd103bc0 3ca9ffaa ba8c79c0 bc464a74 bd193d02 bcab4560 bc7d5bf4 3bcfe200 3d0424c3 bbb061b0 bd4b3a52 3d0c5deb 3b950e30 bd036f25 bd16e6c0 bc6ea5c0 bd316415 bcca2013 3ca9e2ae 3c4c6f2c bc2c2e68 3d26126b bce89797 3c80f9a6 bd396cf2 3d3f3a35 3ae0a340 bcfbd130 3d48dbad 3d2a9c63 bc356ee0 bd40d010 3b9bdf30 3d3634b1 3c79d604 3c1393ec bc3a4f98 3ba18ac0 bc440468 bc5809f4 3d3cdf6b 3a789cc0 bb642830 bcc3f740 bcaf6f2a 3d309a09 3cf309ea 3d3e467f bd141fe0 bcb994ca bce4b457 bc8dadb6 bd3a9732 3c828832 bb316cd0 3c0702f8 3bd80c80 3be1bfd0 bad83b60 bd32c7f2 bd089130 3ca3f1f2 3caadb72 bd1a1b4a bc2fb7b4 3d2956d1 bb86afc0 bba982a8 bc8360b0 3d10fed9 3d1bfced bd27a5eb 3d22d5d9 bcc97913 3c8b6592 bb46fc00 bcef565d bd4a699b bced822a 3d304dcb 3cd10fa2 3bdc7618 bd4abcd7 3c338dc8 bb0ab230 b91e4a00 bcf914e3 3d03728d 3c8ec7fe 3c8d9cf6 3be78ac0 bd359cdb bd19823e bc20ddec bc0ac90c 39f80280 3cc6713a bd05d4b5 bc7ea538 bd0532e5 3c3b4c54 bd1688d3 bd446a4f 3bce4c30 bbe7d4b0 bd1f9d40 bc9a6d1d bd086b0d bcf6ed8d 3aee92c0 3cfa6a1a bd307f90 3d334d11 bc8f4b26 bc9b5c20 bcb56a97 bc3194e8 3cdfbb2e bd414a78 3bc82498 bd31bad8 3c7e96e4 3c2e3814 bd49c433 3ba0e210 3b9ef698 bc724d68 3d0a30ab 3d1fe959 3bf1b1d8 3c89c462 bca5f0a0 bc89870a baa10160 bd16469e 3d18d8e9 bd38b302 3d42f95f 3cddb166 3cfa06ea 3ad94ca0 3d00079d bd06e9ae 3cd0f31a 3d1c3471 3d274395 3d3184f1 3b5103e0 bb8b8f70 bcd89db3 bc0d33ac bd375d45 bc63c9d8 3d145471 bbf7b9b0 bc87c656 bc9af14a bc702ef4 3cc07f46 bd2c0bdd 389fa400 3cb8b16a 3c54e01c 3cb86a9a bc98dc14 bad681c0 bca55357 3cbb828a bc6828ac 3c2b2e98 bc7ff6e0 3d3c0831 bce28c8a 3c3cfcac bd02982d bc4e3ee8 bd4782e2 bc58bd34 3d4aa8d9 bd271ca3 3c836962 bc9940a4 3ce7163a bc3c6978 bd45074a bcd40b83 bd1027a3 bbc23930 3d0b1da9 3c102848 baa496c0 3c396f48 3cf1bd32 bbc0be18 3cf19bde bc98a8aa 39b39c00 bc6d7f00 3bf7af58 bb830740 bca83407 bc830d70 bd3b236d 3d2b30a5 bc920530 3ccf523a 3cd3d10e bd22db28 3c958cc2 3a1e2880 3b652fb0 3c990ba2 bccf6bca 3b18fd20 bce5ca7d 3c1762f8 3ce0ae56 bc39a914 bcac473a 3d3f5869 bd18b8dd bc0bef6c bbb09f30 3c923836 3d354359 bcc8b9cd 3c82513e bd2ae8c0 bd36c9ab 3cadd1f6 3c70f924 3c96d71a 3d3ae9c1 bd19aaa6 3c1e5078 bccd862a 3b7f9cb0 3ce4b442 3b7e2ad0 3d1cb0d9 bcd4fee3 3cdd07fa 3d4460bd bcca4857 bd3ff163 3c8b83a2 bd27b892 bc800cea bc8db8c0 bc036ff4 3ca0f476 bd11657e ba1efc80 bd2b852e bcee37fa 3d3c36af bc7bfb6c bca824ba 3d3ae6cb 3cd9b2de bc36faa0 3ca28af6 3c6ca70c bc8babe4 3b85b450 3d2a8831 bc4976c8 3cd487d6 3c9bc02a bd3cc5a7 3d361205 bd31206b 3b394880 bc6e68b4 3d2e2f59 3d47ba29 bd1b6f5d 3d18f935 bcb3e3ea bd395305 bc875c4a 3c48b054 3d2639ab bc562c28 3bfbcc28 bc47c0e0 bcaccadd bd2e7c4a bd3d4092 3d2cee99 bb1ae9d0 3d1c0f31 3d46d96d bca968da bc0868c0 3cc440b6 3d127e3f bcf70bfa bc579e40 3d479b41 3c9f0b82 3d1e1a2b 3bc65018 3d4ac55b 3b823850 3c9dd5da bccef690 bc825d20 bc5a08a8 bca5dc87 3d0abe09 3ce9fed2 3bf8d480 3d2d2219 3ceb6a72 bba1c290 3cdaee3e 3c5c7e84 3d3c31c3 bd1b54f0 bc72c5b4 3c9d965a bd366813 bcb7842a 3ca78c52 3d09ac85 bc089acc baf1e200 3ba61fb0 3d4a58e1 3d3c74d9 3d0bb129 bcc29683 3c9a09fa bbb0c730 bb73e000 3b850918 3d007045 bccf6983 bcf8a543 3c1929d4 3d3b37cf 3ab528c0 bc884d00 bd2a2dc5 3d4bccc1 3bf07ed0 3c9391a6 3cfb70be bca96f03 bd475b42 3d23dfc7 3d2bb4c7 3cb03c7a bd2c3103 3b726020 bbe69e80 3cc08e22 bd466d5d 3d3c82e9 bca2a127 bc6fde6c bccdec43 3d2e1a31 3d0f5f27 bd489da0 3cfdebf2 bd47aa97 bd37155d 3d20795f 3c645bf4 3cfc7582 3d18c9e7 3cc72552 bcd36ed3 bc88b1d6 3c45cd2c 3c7ba214 bd211903 3d0861ad bc4e1b8c bbf62d50 3c1145c0 3d1fd601 bc20b9a0 3d0963af 3c4177c0 bd44b055 bb9c1fc0 3c70cf44 3bc53bc0 bc68ac2c 3d3b8c2b 3cae9d56 3c6fc7c4 bb3a57d0 bd081988 bcc30860 3c062478 3d229ac9 3c792444 3d3b0c3b bc9175da 3d0f618d bd011470 bc08ddf4 bb4186a0 bbdc0568 bcb1b6b3 3ca59606 bca83fd0 3ce4d37a bd052b0c bcb77a10 bd143bea bd097660 3d0b4ae3 bd2eee5a 3c434d0c bc72bd18 3d3de9f9 3cb7016e 3c743ba4 bd4c8af3 3d14c637 bcc54d0a bd3a2d9d 3c181f78 3d22d597 3bb0c030 bc578600 3bb72280 3d3a3749 bd2f72c3 3d15a681 3cef2bfe 3cb65b7a 3ccad5e2 3cb3746e 3cb5d762 bcf043b0 bcfcc9d7 bce80b63 3cd36d9e 3a31cc00 3d2f97a3 bbe68bf0 bd276a13 3cd86eee bcace0cd 3d34c385 bd44185f 3c940562 bd378150 bbf48640 3d0525a1 3ab60ba0 bcf6c8d7 bb8a2ee8 bb13c4a0 bcb868a0 bd093602 3d0899ed 3d3551cb bcf809fa bd21582e bd22ebcb 3c901432 bb8069a8 bbd83cd0 3d271569 bcaff04d bc00e274 bc6cefa8 3d45f105 bc0a8334 3d219e55 3d076991 bd4272ad 3ba66f80 3b1097b0 bcca2583 bba75558 bd13f1ae bcc79bfd 3d3480a9 bd170812 ba1ea140 3c9ac752 3cb0b7c2 3d431b69 3d3f8005 3cef6502 bcb23083 3c0c0588 3b429bd0 bd4aa3a5 3d3f332d bc9181c0 3cf5af62 bd31d3bd bd33a7bd 3c69eb1c 3cec4f0a bcb90ab0 3c6c7534 bc577e00 bc097c8c bbd2f5b0 bcc3bcf3 3c4f5bc4 3d42a861 3cc837ee bd32401b 3d354223 3bdfdae8 bcabc633 3d3a2307 3d1c3a0d 3c9457ca 3d37dd19 3ae189c0 3ccd0956 3d46c1c9 3cf8e3e6 bc7a08e0 3b18c460 bc2a78cc bd1b2bb2 3c005aa8 3cea28f6 bca27933 bd1021d8 3d2dbe91 3d032445 bc9492c4 bd1ea5b2 bd27b3ba bd4c4e98 bca9e3c0 3cf2606e 3cb69f52 bd0eaa9d 3c36fb6c 3d3c2a01 b9712600 3c37ec20 bbb09d30 3d1dbb45 3c9cf336 bc84435c bc2602c8 3d142421 bc9f677a bd2cf332 37c99000 3b1541e0 bd254ee3 3c609c8c bd26659d bc0acce0 3cc0e1ba bc9c7d50 bcb9ce9d 3d4574ed ba1356c0 bc3c45ac 3d3ec399 bc9aef50 bd436ce5 3c963012 3cb9649e 3bf649d0 bcb9c28d 3cf9e3c2 bb8aec28 3ca8e222 bc715840 3d315b59 bd16832d bd2d8717 3c1a0598 3c95500a 3b2afe30 3cccc1d2 bc83796c 3d2dd4fb 3d1660a1 bd2d6a00 3c316b78 3d1b6eb9 b9dbb980 3d437521 bc5531d8 bd038bc8 3d014d71 bc0f7e80 bb61f5b0 3d0d5481 bc9b7740 3d40aa05 bd2c477b 3d0316a9 3d0cb559 3c831786 3d281cf3 bb943de8 3d402a21 bc6c0900 3d1c1cb1 3d23cb93 3d43fe57 bc8e676a 3cc4994a 3d422f41 3cfc24aa bc9553e0 bca4fe1d 3d4bcfb7 3d374dc5 3cf90862 3d1cc801 bc21d194 3c812df2 3c64958c 3c4b1098 bd1c3533 3ce0d236 3d42a509 bc0eb834 bce92173 3c9c410a 3c2426c8 bcb6946d bc65e820 3d1b0295 3d31f6b9 3d39689b bc8b3c70 baedf500 3c057174 3c0ad4c0 bc74464c 3d426975 bcfe3bc0 bd49bab0 3d0b4433 bd04a676 bc4e7d78 3d0d7071 3bb7c100 3cf2917e bd1f710d 3bf07ef0 3d1bbb7b 3d1a2465 bd24bbc0 3cc02c92 3d305fff 3d017da9 3cf17a22 3d2b14e9 bc6a5b34 3c89e5da 3d23de55 bbca4000 3cb05372 3ad172a0 3c617624 bd011288 ba9541c0 bd08b748 3d25293b bd39b638 3d284585 bcec5e20 3cc83b62 3c109f80 bd059de8 3cc2f62a 3d4691f1 3d2194ad 3d4c5369 3ae70ca0 3d153dc9 bcf305c3 3d181173 bc8a7716 3d087d89 3d0a304f bd04c195 bcdac8b7 bd147fb0 3cf2ac72 3c371d68 3c60e274 3a1b4f40 bd086508 bd1d1f82 bcfef16a bd0da5b6 bd1f5cab 3c67a0d4 3d296765 ba0ddd80 bc9bebc7 3d17fbab bd100782 3ce05ece 3d286099 3d135451 bcf6b41d 3d3fb1f3 bd14b592 3d206f1b bd45d387 3d3ce527 bc266fec bc819bac bd350590 ba94ee60 3c4b5ce0 3d1956fb 3a55fb80 3d1142e1 bd453a4f 3c96cde2 bd26b4d0 3cd675ca 3c9f8752 bd276760 3ce9427e bd397253 bb8b9070 3a71ad40 bc3b54a8 3d21d089 bd3510e8 bbad25b0 bd164ec3 3c5464e4 bc99303c 3c32c360 bb390ee0 babf82c0 bd44ab95 3ab29900 3d454669 3ca4b4fe 3b0e47a0 3d095f1b 3d31d1d9 bcf3fa50 3cfdfd42 3cd8abc6 3c0142f4 3cdba60e ba953e00 3c3051c8 bcd7fc97 3a9fe3a0 3c788194 3d415c6d 3b21f1b0 3b848400 3b99b458 3c9b2892 3d05c8b7 bd167c90 3d4bc8f1 3d35a1b3 38a8b000 bd02a6c2 3d4b8e71 bd09cc78 3cdbf0a2 bbb9b458 bcbeed0d 3d2b0c29 bd24ad65 3d46f159 3ced9f52 ba3dd600 bcff0fba bd01cb3e 3d4b3e97 3cc12ed2 3b6bbea0 bcd85c1d bd1d383e bd072090 3b0422b0 bc479b6c 3b3bdb30 3d434b2b 3c5df69c bc23db08 3d441207 bccb6a2d bc8a4b74 3a36fc00 bd3be08d 3c7608c4 3d11b8eb 3d0719c1 bd4b462f bd10a422 3cde70c6 3b71ec20 3d3c2f6f 3b7430b0 3ac413a0 bcb6d870 bca3fa0a bd44ca72 3d278f35 bc1bffc8 bc91f1c6 bcd99307 3cdf45a2 bd143f35 bd149ebb 3cbf2226 3d3462a1 bc6e8a68 3bd3d098 bd04c0f0 bc247da8 bd16a076 bcf37ec3 bb08fae0 bd188715 bd412727 3d2f0bb9 3b18b7d0 3b74c050 bc9d7373 bd27dad5 bcb2e147 3d095737 3c1351e0 3d349c21 3d08f8d5 bd3a39f0 bb836218 3d1e2bc3 bc1c1ef4 bd2c5708 3d11e1ff bcdd702d bd12be0e b8ae1000 bc96f5c4 bd32ed8b 3d3c41b9 3bd618b0 3c390014 3cf448e6 3b4caf50 bbafcf70 3ada45a0 bcb81d5d bb8c3c70 3cb6ce0a bb106c60 3c9d68ce bc948906 3b04c0b0 3d036745 bc715eb4 bd40a11d 3bd68640 bd36cc47 3c8c7d06 bcf49270 bd332a7a bce99eea 3ccd8552 3b88b050 3c9956f6 bced1d30 3d1b7f79 3c1d95a8 bc8e45a4 3cfcdfd2 3d103eab 3d40ba0b bd3567c0 3c560234 3d052e57 bce53563 bd39199b 3c9d95c2 3c5dcdd4 bd045d30 3d2fb731 bb216830 3c189874 3c3f1054 bc4db858 bd3b092a bd338032 bc90eeb0 bcf52a2d bcdc9bc7 3ca6cdea bce8b79a 3d40d52f bb844f80 3cd61c22 bb38aee0 bd442217 bd1cc413 3cf40142 3d2560a3 3d1560f7 3b8c1da8 bd38d20f 3c1952c0 3d3208cd 3cc76502 3b16c8a0 3c5c563c 3ce1175e bd2c1f53 bca00793 bce155b7 bcbd17a3 bcbbbe20 bd01bd9e 3ca6cd02 bc6953a8 bcacac97 3d395229 bb89d8a8 3d0461c3 3ce38062 bd31127f 3cc39b26 bc4b7048 3d023d4b bccbacc7 bd1920ae bcd00053 bd3acbb3 3c610224 3d26bcd9 3c980132 bd25bada bd2ae3c8 3c702704 bcf70810 3c922cc2 bd13cbf2 3d159411 3ca64f32 bd3cba13 3c498acc bc77c0b4 3d3086c9 3d2a34cb 3cbb2e3a bcf056e7 bce56d3d 3d3153e7 bd2e8333 3c358d40 3c669be4 3d04f60b 3d02a6eb 3cfc7f6a bd3a7def 3cc4d8d6 bb570080 bd4b0852 bd4cbef2 bcd248b7 bd397f62 bab39aa0 bce10107 bd43b26b 3b6ac180 3c817ee2 bccf6dfd 3d1a298f bce38627 bc587df4 3afdc400 3c4851c0 3bac3970 bc71ca74 bd36c32f 3ac6e8c0 bd451e0d bcae6b4d bd415fed 3c959ce6 3d38bec1 bd17b423 bb70cba0 bbee4a18 bcff0cd0 3c7d2594 bca003c0 3d053299 bc4180f8 3d3e11d7 3c327cac bd050282 bcdd234a bbd4c290 bd1e9db3 3d2fd199 3cd99d6e bc1c0c74 3bce4380 bd3fa1dd 3c656cdc 3b468530 bcc5fc20 3d48c197 b9b8a580 3d149793 3d3e8037 bd44d70f 3ce4b496 bcb7caba bd095f94 bd1d4af2 bcdeb7e7 bd31a7e8 bcdad6ed bd3c282a bce84e63 bcab25ea 3cf5101a bd4231a0 bbdb4700 3d0c5419 bc560ba0 3cd6a102 3cf126c2 3c808bb6 3cb7137e 3c4310f4 3d0f23ab 3d4c7bc1 bc92e8b0 bd40ff07 3bbd2ab0 3d0c8e03 bbdb37a8 bd40fb70 bbba5818 3ca280ee 3a661f40 bc3c86a8 bb611620 bb904800 3d37de99 bd4a899f bc7a1408 3d0d607d bc8d9196 3c7e4694 bb8f2f70 3bc2f510 3c3c9b94 bd1f1372 bcd02dc3 3bfec4a8 bc59bdcc bce576bd 3d4aeeab 3cc63b0a bcde3d0d 3cca2faa bd292da8 3c1966cc bc9bcfb0 3b5afca0 bd04c7c2 3c76e284 bcb0ce17 3d295283 3cee6ba2 3d225989 3d3d8759 3d0e45a3 3cc95e96 3ac9e9a0 3c3bbf54 bc9c0743 bc430fa0 bc1c4a58 bba58f98 3d383f51 3d1110fd 3cebe412 3d05dce1 3cb5ed6a 3ccca7da bbe012d0 bbaa9c58 bce82ad0 3b241730 3d36e571 3c5376b4 3cd27bae 3b075c50 bd4b60e7 bd0faf0b bd0fcfd2 3ca522be bced4900 3c9fa8da 3d1f731b 3d284d4d 3c480908 bccddbc7 bcbe4d4a 3c9356a2 3c77f214 3c076eac 3cccc8de bcaad6fa 3c83d632 bd4a64b2 3d465467 bd0aa905 3b458300 3c9e7d22 bd02c9ec 3ca15dfa bc655848 bd29dd73 bce44530 bcb3b8e7 bccfffe0 3d11a6d3 3c0a148c 3c8dca12 3c55a02c bd1a486b 3cff9346 bcd20133 3d051363 bcfd8220 3d398ee3 bbfe02f0 bcaa73c7 bbba1140 bafb8ca0 bd3f952d bd396377 bca53bbd 3d251489 bd064018 3ca7fafa bd1245da bc0bd554 3d1e0fb1 bd380cb7 3bda4a18 bc03904c 3d457a3d bc14c894 bd14a860 bd01993c 3bfe6128 3bde1f80 bd16def0 3d1abe85 bd338c93 bd05793c bcdb1980 bd3ce5b2 bd225306 3c9ac92a 3c848872 bd047872 bcc7d3fa 3c9359d2 bc33ac4c bbc96058 3d03bee1 bd1fa613 bc98eb70 3bd9e030 3c2e5f00 bcc2ff5a bc983fd6 bce0c7aa bc92981c bd03fb4c 3c52e1e4 3cfff2fe 3d3abd19 bd097164 3c8a588e 3d441e0d bce0ffaa 3c85bade 3d10dabb 3c05a460 bd1b899d 3ca5cbbe 3d27bde9 3ce0f16a 3c52cd94 3bc6dd00 3d373999 3d126851 bd03d38d 3d2758e1 3c0a09cc bced05e0 bc9e03d0 bd35e462 bc651498 3d17d8f7 bca78f93 bc0e5598 bcc54327 bd3a2e2d 3d176b91 3bb98698 3c1eae40 bcd711d7 3d3edd29 3d471939 bd195eb8 3cd8e1d6 bcd08eed 3ce3261a 3d249241 bb981280 bb68f1a0 bd2b210d bcedc837 bbbf7358 bd24a8c2 bccd6aea bbd2d858 bc3c1bd4 3bc5a428 3c5b6bc4 bc643b18 bb83b900 bd152f66 bd099ba0 3cd96d3e bd461bf5 3d3b87a9 3b624f60 bc767218 3d0c2afb bd405aa0 3d1e5483 3b8e8530 3d2c928d 3d084c15 3d211a99 bcecbfba bb828550 bd443b85 3d2ef60d 3d3e7381 3b13d700 3d17d497 3c6cd4fc 3d22c235 3c8b2562 bca12503 bd47ed43 bc432b20 bd283b0e bd25e5d5 3d4027a7 3d0be581 3d082b23 bc9e42ea 3c08f3b4 bd07558d 3d3ff799 3c318bd4 3d005325 3ce1ccd6 3d330c93 3ce1a7e2 3a0c1400 bcdc656a 3d30feb9 bd2c629d bd06e475 3d26a491 bc23cc8c b9a94b00 bd37818d bc9b60b3 3cc5a732 bd3edd07 39f85500 bc2ceda8 bc21a3cc bceed0ea 3d3c2c4f bcadca90 3d32ec01 bd3d1d27 bca0cc20 bd389bfd bd0e0615 3d23d891 bc93a546 bd374e83 bc7ad9d4 bd1e0fcb 3c61ab5c 3d078fb1 bc144fe0 b9d6ac00 3c545d84 bcd1d677 bcdd9e37 3c329558 3cc05c12 3c8705e6 bd3675e5 bd393cb7 3cae8f6e 3d32f741 bd178e92 3a850340 bc852c40 bd21264a bd0cca9c bc9b86a0 3c06c148 bc34b7d4 bb625f50 3d414f49 3c3d9920 bd06aaf2 bce62f9d bd27af0e 3ce15632 3d1d5ca1 bc7c072c bb996ec0 3d40f9af 3b92c128 bb6b85b0 bd0be068 bc5f05e0 3c790064 3cf474b2 3ccee87e 3d08edad 3d33f53b bd45b12b bd0230f2 3d4c186f 3d2896d1 3d4613ab bc067538 bb486760 3ccaa472 bbdc7f00 bc5cbdd8 bd4bea87 bc2481ac 3d038239 3c9c0e0e bb0f9bd0 3c09ecac baa5aac0 3d1fd6fd bb3e42b0 bce102fa bd06fd5d bc264514 3b016730 bcbc5f3a bd103f4b bd303015 3d45ca71 3d44e789 3c310848 3ba14a58 bcd97377 3c6d48a4 3c8fc016 3c37deac bd0a0bc6 bd213d4d 3d4074b5 bc085838 3b7c49b0 bc883df4 3c52b3a4 bcbedce7 bca7a5d3 3caf9b5e 3d12a4e7 bbd2aa00 bc5331e8 3d39d189 bd3d918b 3ca99322 bd148aed bc87618a bd46b010 3c2aa1ac bca8199d bc8796aa bcc29d37 bd1d9c32 bd20e94e bbce4328 3d380503 3d23119d bd4a7377 3cccee7e 3ae409a0 bd12940a bc4f9fec 3c9f928e 3d39c0b3 bc6a3968 3ce9e646 bd131083 3d40c045 bc73968c 3cdc06a2 3d166f81 bc4a2660 bd3de672 3d156b99 bc688ec0 bcab7f77 bbf5af58 bd17ca06 3d01f30d 3cb0429a bd0f7598 3c867c52 bcdc5297 3c263cd8 bbf0b590 3cb4651e 3d237b67 bd1c0606 bd27309e 3cdbcace 3cab31be 3c8531ee 3d091adb bb2d9ca0 3ca5829a bc80c946 bc6dcd54 3ce1eaa2 bc0649d4 3cbdaffa 3d0fae85 bcce6000 bcf47fe7 3cab60a6 bbc7f028 bd1ab495 bcfd1e6d 3cbc7482 bbc07a30 3d014109 bd0aec32 bd472083 bcbdcae0 bc75be68 3d2448a1 bb3a7050 3d3f2bc1 3c15e94c 3cc3db66 bcbce3d7 3cb828ce bb6b9180 bcddd330 3caf67a2 bd25ddd2 3c80b3be 3cebf946 bbafa4c0 3c3ec548 3c8a4b56 bb1e86e0 bcce8747 3c48e898 3ce00582 3d3cd255 3b93f280 3ccf9b92 ba821ea0 bd181ac5 3d25ca17 bcdd315d bb8de5d0 3d2eef4d 3cc90212 bcc3588d bb1fe000 bcf5f620 bcff03c7 3c6aa91c bcb29eea bd3bd2a0 bd101450 3c0a0bac 3d0f142d 3d3a1811 3c9072d2 3c9746d6 bcae87e3 3d1de40f 3ca2a066 3ba52328 3ac0c400 bd044412 3d3396e9 bd4606e0 3ce49cc6 bd21903a bce78a5d 3d17bf69 bd251242 3c224118 bd3b8495 bc61d2b4 3d020a05 3c8c2402 bc13f088 3cee65ea bd31839f 3d153433 bd04c39c 3d1c8725 3b343e20 bc13b860 3d29022f bd299692 3b6535b0 bc76d780 bc58d378 bcbdeaa7 3c8549a6 3cd5d13e 3d457ea7 3ce42b52 3d22d12f 3c860102 bd158388 bbbbeaf0 bd29a5ea bd30f5f8 bd0500aa bca83117 bc83dad4 3c790aa4 3ad0e8c0 baa50440 3cdb8402 bcb77dba bcaf95ad bd37b2ba bd2c7830 bc837934 3cee0532 3b295d50 3d4a3055 bd30e120 bcd4a41a bd1d3cd3 bb5a7820 3cb4afb2 3c97b9f2 3d04463f 3c879252 3ca8de12 3c6b303c bd456acb bd13008a 3ce0a2c2 bc8b28e0 bc2b3268 3c1344e8 3ba25758 3cb10f96 3b3109d0 3d39e5e1 bc5db720 3cafd9de bc51792c bd2e1cf0 3d28061b bd2d02d2 bcdf3d47 bc88673a 3d12ee91 bcf26440 bd3df9f2 bcd3975d 3d106463 3c91b0ba bba2c798 bb532de0 3d4af07b bd0beb70 3d34127b 3b4578b0 bd45baab bca6533d 3cd66762 3c018d78 bc4ba7cc 3c8364b2 3c5fdbd4 bcd4d0f3 bd451ec7 bafcf3a0 3d38036d bb9fc370 bb928790 3ca14392 3bd2ed10 3cbc04b2 bc9403c0 bd359745 3d4089f3 bcb20ae0 3a9538c0 bcdbe5a0 37d25000 3b14e130 3cacb53a 3cfaf156 3c3bdde0 3d145011 3cc757ee 3d0ec137 bbc2bb98 bd1fef75 bca5f873 bc4ba968 bced3073 3c0cc268 bc724d60 3d2c31d1 3d4adf0d 3ada3f00 3d3d0457 3cc56e42 3c42bfc0 3d222f39 3c8b3672 3cb3259e 3d3ae703 3c229658 3cc3f446 3ccac216 3b0e7d60 bc8312b6 3c942b6a 3d46ea7b 3c1211ec 3c386f94 3d06b7c7 bd230c93 bd15a453 3ceb6376 3d3ce91b bc048ce0 bc56f52c 3d3886b9 bcf49310 3cf35b3a 3b8f89b0 3cb04322 bcc493fd bd3c2e6b bbade690 3c813186 bb583550 bc24aaec 3d2a4741 3d293a19 bc948ee6 bd26ca8e 3cfc891e bca17a9a 3c145294 bd3faea3 3c31aa80 3d14b429 bc7c77d8 bc9e42b7 bd239caa bd0e0173 bcd21bb3 bcf473e3 3b8e1ca8 3c008ac8 bcfc52ca 3cd7df4a bd051776 3c9e71be 3c54f6dc 3ccd1152 3d090aa9 bc090148 bc5d5d18 bc91528c bc91476a bcd29153 bd303042 39fa9580 bd2f1bb8 3d36f0c9 bc94238c bd1fbe8e 3d36ab75 bc2f5ba0 3d232cad bd3a4955 bb01da80 3d43f52f 3b3fdda0 3d0a2877 bb78b050 3d294187 3cd82752 bd22cf76 bbf8dec0 bd32ffe0 3c4a774c 3d148261 bcad9440 bca1335d bd1a97e3 bd22af50 bcd6dc20 bc250198 bd035118 bbf0c298 3ba8ced0 3cca61a2 bd398652 3cbdee06 3ba10100 bd38b1db bb641eb0 bb0c9450 3ca551e2 3ca27662 3be4b370 3d46f983 3d40f231 3ce6c212 bd3310b5 bce046dd 3b6294a0 bce293c0 bd0881c2 3cb13eda 3c0a3800 3c348c6c 3c77e764 bca91fca bd06c1a2 3c68e5cc 3d47c977 3c11d1b8 bd467a1b 3d318667 3d036429 bcb6cf43 3d2586e9 3bec9540 bc935516 3b3782e0 b6fd6000 3c933ede bd37b490 3d17f821 3d22c083 bc853050 3c8c4322 3bafe240 b9cf2100 bd3fb2c3 bcd1c750 bca71d4a 3d18e835 bcb6de47 3b08c600 3ce7beca bcce87b0 3bff0550 3ba1f6b0 bbf0eef0 3c3a384c 3cc6bd22 bccbf0e3 3d108591 bd2aba83 bd24f4fd 3cb5055e bc72e3a8 3d0a8d45 3cf9ebc6 bd390963 3c76295c 3c723bbc bd09040c bd48089a bd3bfd97 bc8619dc 3d25cc3b bd14786d 3d2c4175 bd0a43f5 bc4684d4 b9a58d80 3c5cd124 bcb98ccd 3cfd3be2 bb8c73a8 3cd3bea2 3b6fc7a0 bcd2b6e7 3d3001f5 3d456239 bc13a058 bccd7dc7 3d3846eb 3d38b655 bc0745cc 3c0b520c 3c502224 3bf05a98 3bb05390 bceaf013 ba8c8900 bbc69da8 3cab028a bd229a5a bbab5290 3d2f8c71 3bbd4530 bd05f5d0 bcad16c3 bd26ca55 bd4b439d 3bdc25d8 bd02eeb8 bafb6fc0 bc029674 3d2f023d bc9745c6 3d292513 bd2c1cd0 bb48c7e0 bbaacdd0 bd3647a2 bcd580b3 bd2c074d bd2f9c48 3d2264a3 bb266080 3c20fb20 bd169f20 3bd9c490 bd3acf08 3ced719e 3d2d7751 3c28e920 39546600 bcf5ecad 3d25723f bd0930e0 bcc5bd47 bc632ac8 bd39a72d 3cbfa612 3c9cb4d6 bb977ff0 bc68ec18 bd13dcda bd1684cb bca1fa3d bd053d72 bd0d901b bd0d4ea3 3c625f74 3c828c1e bd0f7a82 3bd51f50 bcda10c3 3d4baf81 bbf644b0 bcc3294a 3c627d94 bcb5a347 bd44e422 bd461ca8 3d018fe1 bd45e0a5 3ace02a0 bd04b354 bcdae980 3ba19740 3ccf3c5e 3cb60fb2 3c7d25a4 3d1b275f 3c7f8f84 3d2afc55 3d2c3251 bd412932 bc1f5bd8 3c1e442c 3d0f37ff bc491d00 3d21d779 3cc363aa bd19c672 3d17237f 3cb239ba ba6aac00 bcd6bbc0 bc6e5dcc 3d0ed7c1 bce2a13a bd37342d bd457fd0 3b50fe00 bd3b7f5d 3d40f8e3 bcb45163 3cafcce2 bd2fc6f3 bd0e5356 bc2390c0 bcd4b39a bb1fb8a0 bc2729c8 3be912f0 bd110460 3d35ec23 3d10d1cd 3ca19dca 3d00416b bb812090 3d39fbb7 3ad67ec0 bcae0ec7 bc148698 3c85f282 bd262d03 bd30ce82 bd46f810 3d16b285 bccce46d bc51ba58 3d3f3d6d bbcfc700 bc2a01b4 3c9a1ce2 bd111ba6 3d4bc681 3d214b9d bcccff20 bc8cdbf4 3d2f4c01 bcd472b3 3cecb9da 3c978406 3bc77f28 bd261075 3c26628c 3c6148f4 3d21e563 3cb2d3c6 3d38f955 3d3a9189 bce4f350 3d17ce77 3d10f997 bd41c4f3 bd325fb5 3c417480 bd2764ae bb9ec9b0 bd10f090 3cdece0e bcd98397 3d124011 3c2c0054 bcfebb67 bb1c82e0 3c96d626 bd3c5198 3a7fe4c0 3cb9e63e 3bab67d0 bd413b2d bc4a62c0 bd37b6b7 3d290d6b bc0c1bac 3d02deb5 3d46e2df bcc3e8c3 bd24ce5d bbe43668 3d4562df bd04ba40 bbd6c240 3d2acbab 3c87fcf6 bd125323 bd0dc7e5 bd245ef5 3c922796 3c8f4bfa 39181500 3ad13f60 b9d60d80 3c2a34ec 3baffaa8 bd379f98 bb3f7900 3c911f8a bbf48500 3d179d99 bccc495d bd172a36 bd1bd37a bb4d0c80 3d09ae29 bd258568 3d3fe707 3d3a52e9 3c9d6972 bcdf0233 bc9991c4 bd181a7e bceb58ed bcbc256d bc69a714 3b92ccd8 3c210348 3d355777 3d233f0d bc36f8a0 3ce7e17e 3cc68222 3c74c44c bd36df5b 3cf447e2 bcd71d10 bd05bb16 3bbfb600 bd1c4bcd 3bbf3a58 3d03aa79 3d46c95f 3bb18680 3d3b9245 3cf614f2 bd1dff92 3d4190a3 bd16b740 bd16bf50 3c081660 3cc25986 bd111c52 3d2ec7f9 bcc0266a 3d3eede9 bcb43e50 3c43f278 bd104a56 bc691f28 3d3904eb 3bf3df50 3d339467 3ab61460 3ca70886 bcd974ad 3d38205d 3ccec256 bcc4cdea 3cecba06 bd20ec73 3c623664 bcc818ad 3be854c0 3c8be1d2 bd2411fe 3d406a79 3c1724d8 3c188ccc bbc30728 bc46c508 bcfcb1ca bd1cc1f5 bd12e11a 3cc24102 3c6958bc 3afa71c0 bcffaada 3c51a8a4 3c882f42 bc26c168 3d1a6e0b 3d2f4c5b bcff5963 bd177dab 3c98f246 bd346fbf 3cb963d2 3cbe00f6 bd11477a 3d194e93 bd374ef3 3c86438e 3ccc475e 3cb8dd06 bcdcecc3 ba81fba0 3cc751be bcae0d53 bd01d898 3d255dc1 bb63a750 3ce1efd6 3d465387 3c2b35ec bca78a7a 3d1b5fdd bd0753aa 3d3ab5b1 3d29a4d7 bcc86e6a bc9da86d 3cba8eca 3b5b2da0 3cec5fd6 3ce0e30e 3d3366f5 3cf55f6a 3c0b6c38 bcc6fa70 bd29efa3 3d4b6fe3 bd262d98 3d3588f5 bcc37f27 3b3b9650 3d107563 3d0e2cf9 bce69700 3cbe7722 3d1afcef 3b90a828 3d12aae1 bd25096b bd346237 3d01da3d 3b8cc8c0 bd13dcbe bd2974f5 bd1e2e86 bc8dda96 3d1d99d9 3ca039fe bcff569d 3d1ba1cf 3c358a0c 3c8838ea bd2ea7a8 3c1e6a68 bb936430 bcabfb30 bc804c84 3bd1e750 bcc1351a 3c2b5a34 bd472b55 bd022e32 bd4cca7d bbef3398 bc92a0da 3d1f97a9 bcb2d1b7 3bee0018 bd3ed2d2 bc8d7d74 3cfc7dba 3ab2b860 bbcbc080 bcf35947 bd080c56 ba7d58c0 bc4e9dc8 bc2a6b08 bd3f763f 3bf5a950 3d32f2cd 3d127ab1 bcb1e493 3d2c4069 bccaa3a0 bd229c6e bbaecee8 3d1ce239 bd2aa623 3a808860 3d2ca8b7 bb864e10 3bf61d28 3c686fc4 3c0c5e4c 3c462178 3d2f286b 3caf8436 bd49b2d2 bd05a645 3aacd440 3c4c97e0 bc216d08 3ca7de86 3d0ddcff 3d491ee1 bc898e90 3d22504f 3ccd0ca6 bce755b7 bcee28ba 3d36719b bc900f26 bca35420 bc6ef894 bcf93d3a bc09fdcc bcb5db6d bc8a7b20 bcadfe9d bd09b2bc bc4b99a8 bd05f17a bd45db27 bbc90818 bc974dbc bcd89f2d 3d2ce991 3ca88ce6 bd02fe76 bcc9e720 bd26a63a bd42343a bd138fb2 bd0870d0 3b704e60 39bb2d80 3d036419 3c8cdd86 bd1cbca0 bd309605 3cf6cefa 3c4d8f24 3d12da21 bce18afa 3c9d5ca2 bd464777 b910e500 bcc28ca0 3d06fb7f bb9de768 bd44d5d3 bd45ea88 3bc92ce8 3bec0ee8 bb1e9fd0 3c8364ba bc319578 ba5b06c0 3d48ea11 3d47b019 bcb71aa0 3bf4fb58 3ce5b922 3ad6e0a0 3cd7426e 3cbd3c22 bcdd6e0d 3d00b9c7 3c4886c0 bbb33890 3c5deb84 bcf820d3 3d2b82f5 bd4a0a6b bd040b94 bd3b8fcf bcee0263 3cf53cc2 bd26510e bcda732d bd195db8 bcafc063 3d0ce28d bc8bec64 3c9e7812 bd49f790 3c83704e 3d17d381 bc88943c 3d00d245 3d1fbb75 3d34f375 bd3d020f 3d469539 3b0e3230 bcee09e0 bd0c619c 3d2472df bcf24fb0 3c55d204 bd0736fd 3c6db104 3d17d4d9 bbf1d640 3c972d3a bc0dfe98 3c485994 bc3e07c8 bd0e8846 bd16aeeb 3b7ace20 bca3a62a baef8800 bd3ce38a bcc3f0d0 ba023000 bd25fab5 3bcaadd0 bd146c68 bb07ad80 bcfc83d3 3d3e25f1 bd113486 bcf3c76d 3c21cdb8 3d33fa41 bd244023 3ccff582 3bb186f0 bd228d6b bcccf4da bcb31b00 bcba60ba 3d3da56b 3ce9d9f6 3d2f8bed 3cc64942 3d3c00a9 bc16e02c 3ca629e6 3c795214 3cee4c7a bcac7fa7 bd3391d7 bb585630 bc692bec bb26a160 bd412e6b bd03192a 3d42c537 bbf2d230 bb814140 3d3daed7 bc83005a 3bfe5230 3d214891 3d21509f 3c65660c 3ce0551e 3d34de0d 3ce0ec0e 3d28374b 3ce200b6 3b5f51e0 ba2f8140 bbe68a58 bcab393d 3b383830 bc1f57e8 3c4adf98 3d18b891 3d2d4399 3ac194c0 bbe10600 bcd9cdf7 bcb78a7a 3c059d00 bd2fb5b0 3d097dff bb6d50a0 3ce0edc6 3d2775a1 bc90ca8c 3ca82362 3c30ea0c 3cc4e772 3d4a9a8f 3d2b9b31 bca9c86a 381a6c00 3d4bcc8f bce1ff27 3b49f9e0 bd42e67d bc884ce4 3d30b397 3c907992 bc57d92c 3d1df175 384cc000 bcf417cd 3cf2e09a bd26ea2b 3cfc830e bcdacb5d 3cfc3aa2 bd2dac82 3d2a8951 3cd52b82 bd232026 bcf43ff0 3c5590f4 bc65de78 bc3fc954 bc362614 3b6f2000 bc420788 3d2f2f67 3d3fd461 3d249283 3cb77896 bd1bec92 3c484080 bce07f5d bd3681d7 3c1a7780 3c0117c8 bd084ff4 bd11942e bbdde230 bc14bcc8 bd41465f 3c2923cc 3caa9dfa bd39ad7a 3cc5bd86 3ceb6a66 3d36451d 3ca8cbee 3d07011b 3bdecd10 3a8f7fa0 bc8a6bc0 bc18784c 3c00d7a0 3c2d3054 3cf78b22 3ad620c0 3d323377 bcef1737 3c42b340 3c593e44 bd29bb95 3cac18b6 bb7e0f60 3b930ec0 bc310f58 bc809e54 3cb8961e bc726478 3cbbdbf2 bd24801b bd336bd0 bc662500 bd02b020 3c1ada34 bd0baff0 bd0f1ff2 3cbc0be2 3cbf83f6 3d1b3c3f 3c3e7af8 bb79aab0 bd01df66 3c304074 3c53086c 3d2ca809 bd08e1be 3b8d2b80 bbd26218 bcdfbbca bbf49ab0 3cdd8616 bd46cca0 3bede3e8 bd15dcab ba8bd640 bbc148b0 bc035540 3cddceb2 bcdd0ead bc4c2180 bd356615 3b908f68 3d2890cd bc54faec bd3a3c6a bb4b7a60 3cd88bb2 bc14be80 3cd64ff2 3ce49e72 3d3d6dd1 bd3caa9d 3cb1e442 3cc39bf6 bcb1e07a 3cb43e52 bd3a4e7b 3d3d1787 3ac17000 3bcd13e8 bbd64e50 bbc3d140 3c91ab9e 3d1b0f8f bd37dcdd 3cfd2ae2 bcfa22ba bc29fa2c bbd9da30 3c4b9b2c 3d2a285b 3d4a0d7b bcbdee0a bd3a9542 3cd79106 bc56e868 3b41a4a0 bc969d4a bccf089d 3a18a680 bb33d250 bd2792bb bd2340c3 bca53c13 bc0218c8 bd1085f8 bb7fdb80 bcc34367 3b1053d0 3d1d9437 3d1b6ae1 3c94eb22 3b5e1960 3cc76e12 bc934bf4 bcfe0d7a 3d291fcd 3d1eec13 bd3bc80d 3cc8ec82 3c96a7a2 bc721168 bd1b7f05 3bfb70a8 3ca9bfaa bb455650 bcfc5c33 bca54bba bc62134c 3d36b303 bc9e312d bd30637b 3d166615 bb4cedd0 bd1b80f5 3d0a8521 3d0991e9 3c180a60 3d3b2111 3d338e1d 3984c980 bac3a0a0 3aa93ac0 3c9a9f52 bd3c7923 3cc4cba6 3d260c99 3bbf6b80 3cb1ef6a bd1e29e3 bce249cd 3ce4dc06 3ce3ef32 bcf8efa7 bd40ccef 3cacf856 3c2626b8 3b1faf20 3c7e91ec bcaf3e3a bc9f8183 3ce2f9f6 bbb2d5b0 3b70eb50 3d25ac33 bcc211dd bab09200 3d13032b bc8c5b16 bba371c0 39ebfa80 bb0c9400 bc21d1b4 bd084225 bb39ca50 bcfe1cea bd43f087 bd33d995 bcf61f10 3d04b88d bd0720f8 3c1184d8 bc54df38 3d02a101 bcacf317 3ca76802 bc5b03f4 bcb036d3 3c81ae82 bb579f20 3d3fcb05 3cf3c7c2 bc747c48 3be780a8 bc52aef4 3c4109d4 3a234140 bc0b8060 bce7f390 3d1e2c9f bcf54690 bd41ed1b bd187afa 3cf26af2 3d050ccb 3d45ac8d bcbaaebd bc0a8e18 bd3219fb bcf4b603 3cfe3b9e 3d068d19 bd3ec488 bc0ae068 bd02f832 bc0b8d48 3d23ffe7 bc8b1ca4 bbfa0a90 bd164e2e bb60b120 3ca359c2 3c06fc0c bd236826 bd25713d bcfc5fe7 3d230ad9 bb036a20 3d49eebb bd23f9e3 3cafc87e 3b878798 3b7b2cd0 bd0982c5 bd2f780a bcee56ca 3d3cd7cd 3d2ed18d 3d103be9 bc606380 3d238a95 bcf478a0 3d4c10e9 bcffdbbd 3bb1e6f0 3c6cccac 3cb60862 3d4badb1 3cbc5a9a bc071aec bd2d2657 bc8461bc 3cff5a76 bcb1bb83 bd2a6d35 bca058ea 3cab7bca bc2d6998 bc2cf0c0 3cee32ce 3d197177 bc93f16c 3ab9d860 3d1a5c1f bce98f97 3c9a76da bcd4511a 3d355887 bd255a65 3c08a1c8 3d0949f1 bd1d17db 3c8c4e82 bcb62b0a 3d291ccd bd478437 bcb81ced bb7d9fb0 3c20f988 3cca84be bc489bb8 bcf6f4ea 3d175131 3d052af3 3d25908b 